e </w>
s </w>
n </w>
e r
e n
t </w>
a </w>
t i
e s</w>
o n
a n
i n
t h
o </w>
, </w>
. </w>
d </w>
a r
o r
d e</w>
l </w>
e s
e n</w>
o n</w>
c i
u r
y </w>
th e</w>
r e
c h
i s
> </w>
< 2
er </w>
u n
a l
r o
a ti
a s</w>
l a</w>
q u
t r
i t
d e
o s</w>
o m
f </w>
d i
s i
e m
a l</w>
l i
en t
g </w>
o f</w>
a t
l e</w>
c on
en t</w>
i n</w>
' </w>
t o</w>
a u
a d
e l
a m
e d</w>
o u
an d</w>
p ro
e c
a c
i r
f or
p ar
p o
s t
p r
qu e</w>
a b
e t</w>
ó n</w>
e l</w>
a ci
i s</w>
ati on</w>
i c
<2 en
<2en ></w>
a s
s u
l es</w>
ur </w>
a n</w>
d es</w>
f r
c om
on s</w>
i l
in g</w>
d u
o l
t er
o p
é </w>
t e</w>
) </w>
e x
a t</w>
s e</w>
i t</w>
i m
l e
p or
ti on</w>
a g
a p
c e</w>
ch </w>
i d
r es
fr ></w>
<2 fr></w>
l '</w>
( </w>
0 0
c u
a v
ar </w>
es ></w>
<2 es></w>
s e
l os</w>
p l
à </w>
d er</w>
v er
aci ón</w>
p er
t s</w>
i g
m </w>
r e</w>
o b
i </w>
b e
/ </w>
g r
l as</w>
em ent</w>
m e</w>
or </w>
c o
v i
for </w>
u n</w>
th </w>
n o
u l
r é
es t
u s
du </w>
d '</w>
n i
2 00
w i
de l</w>
m e
f f
on es</w>
an t</w>
di e</w>
p e
d é
x </w>
th at</w>
ati ons</w>
un d</w>
d er
0 </w>
t e
: </w>
m an
m a
ir </w>
l y</w>
l o
a d</w>
tr e</w>
t en
on al</w>
ti v
p u
C om
s o
m o
é r
m ent</w>
ti n
in ter
for m
t u
si on</w>
an s</w>
t a
w h
d o</w>
c l
k </w>
e in
s er
d en</w>
g i
de ></w>
<2 de></w>
ent e</w>
1 </w>
em b
r </w>
b e</w>
d is
r a
t o
li c
i l</w>
ent s</w>
au </w>
n e
ar i
5 </w>
ti c
wi th</w>
2 </w>
al es</w>
m is
b i
es t</w>
é s</w>
C on
un g</w>
ci ón</w>
ad o</w>
s ch
pr es
ar e</w>
par a</w>
m in
w </w>
c e
it é</w>
u </w>
en d
a ir
v e</w>
r i
d es
3 </w>
b u
po ur</w>
p a
ti ons</w>
on t</w>
s h
ou s</w>
tr i
is t
g e
u p
au x</w>
un e</w>
4 </w>
d ans</w>
p re
d o
at e</w>
g an
n ati
b y</w>
I n
I </w>
; </w>
par ti
f i
e v
it y</w>
g u
n o</w>
v en
it s</w>
th is</w>
t es</w>
f in
i z
t en</w>
1 9
6 </w>
er e</w>
ou </w>
o ur</w>
ur e</w>
i ch</w>
t é</w>
n e</w>
por </w>
c es</w>
c on</w>
l d</w>
l o</w>
g en
t er</w>
u m
f ic
an ce</w>
w e
7 </w>
s tr
8 </w>
re c
par </w>
aci ones</w>
ab le</w>
s o</w>
er s</w>
du c
u s</w>
s ti
pr é
s ur</w>
ad os</w>
ur op
c r
is i
ci al</w>
U n
com m
g en</w>
m i
a f
v el
- </w>
ur s</w>
gr am
por t
en ce</w>
é e</w>
d as</w>
por t</w>
un a</w>
ci a</w>
on n
al l</w>
ol u
av e</w>
al e</w>
p on
c es
h e
ou ld</w>
h </w>
em </w>
w as</w>
t ro
v o
í a</w>
no t</w>
a in
s t</w>
ag e</w>
g e</w>
ent o</w>
w e</w>
9 </w>
w or
z </w>
A </w>
h o
s es</w>
b er
m es</w>
f u
s p
i e</w>
f er
ci p
th e
t ed</w>
c er
f ü
R e
or d
qu i</w>
tin g</w>
di c
in form
h ave</w>
e d
f ro
es ti
th er</w>
as s
ser v
i v
cl u
re l
ch en</w>
is t</w>
s ec
fro m</w>
ig h
é es</w>
e t
po s
E urop
a h
per s
pro gram
S t
P ro
u m</w>
a y</w>
el l
é n
or gan
" </w>
at ed</w>
c re
ou t</w>
ch t</w>
po si
z u</w>
en ti
P ar
id ad</w>
b r
tr a
v on</w>
s it
in g
t or
sti tu
vel op
il l</w>
tr an
é g
t ur
m it
nati onal</w>
al l
ch e</w>
r ap
m ar
E </w>
an d
mis sion</w>
an te</w>
er al</w>
e g
h e</w>
m u
su </w>
air e</w>
S </w>
l u
m on
U ni
ob re</w>
ó </w>
c or
w ill</w>
re g
com p
k e</w>
qu es</w>
h as</w>
ad a</w>
wh ich</w>
d ur
es e</w>
un i
as e</w>
m it</w>
in e</w>
u c
s y
y ou</w>
e ch
b l
a y
ati v
cu l
si </w>
s obre</w>
a it</w>
i er
b o
f o
s s
h ab
ti es</w>
on e</w>
j ec
o c
C o
’ </w>
S ec
k e
g o
p </w>
v e
s es
ent es</w>
e f
19 9
b lic
A n
d s</w>
an ts</w>
w er
i a</w>
en tre</w>
im port
p ec
el le</w>
t a</w>
fü r</w>
ac e</w>
en tr
L a</w>
im </w>
ar y</w>
tiv e</w>
G en
d r
b le</w>
al so</w>
co un
c ar
j e
is tr
me di
h r
c ur
su b
é té</w>
d ro
le g
ver n
l is
j u
at es</w>
de d</w>
m á
m en
m or
á </w>
t am
po li
qu i
al s</w>
e ff
a i
h u
n aci
' s</w>
g ro
il l
a ch
au f</w>
t os</w>
tran s
V er
pres ent
ic </w>
es s
ein e</w>
au s
an n
v is
al ly</w>
E st
qu '</w>
c ol
l a
so ci
è re</w>
ad es</w>
f un
N ations</w>
A r
con tr
Con se
% </w>
res pon
ap p
su s</w>
en cia</w>
con si
a j
C h
má s</w>
s pe
C </w>
s ont</w>
p as</w>
en s
it e</w>
ci ones</w>
an g
in clu
s in
d os</w>
op er
nati on
r en
c ap
m ent
ir e</w>
s on</w>
res id
Com mission</w>
tri bu
r es</w>
ex am
ac tiv
l ar
k ing</w>
i ch
u e</w>
be en</w>
fin an
un gen</w>
olu tion</w>
in v
air es</w>
c </w>
b er</w>
ic e</w>
d a</w>
ad op
pl us</w>
the ir</w>
em p
Gen eral</w>
t ec
s é
em ents</w>
è s</w>
ur es</w>
or i
ar m
li g
c an</w>
e b
a ch</w>
Com ité</w>
ar d</w>
pré s
i ci
at s</w>
re t
h a</w>
o ther</w>
ol o
e u
er a</w>
con om
t y</w>
si g
d ad</w>
sh ould</w>
i li
it ed</w>
su p
s ou
sy st
in s</w>
n u
P resid
t z
com o</w>
us t</w>
m ents</w>
con tin
d ing</w>
sit u
pa y
o ff
In ter
s el
v er</w>
n ec
ec </w>
con cer
de ci
m er
è me</w>
g l
qu es
ad as</w>
g én
É t
an ti
pr in
E l</w>
t el</w>
m en</w>
tr av
s om
su l
de velop
an tes</w>
Europ e
ati ve</w>
e h
? </w>
con f
up </w>
pro v
ér i
am </w>
t te</w>
ê tre</w>
es s</w>
en s</w>
pro duc
li ch</w>
f on
av ec</w>
1 0</w>
ic a</w>
un g
D </w>
is e</w>
is ation</w>
g o</w>
t re
isi ón</w>
lo c
w ir
a st
w ir</w>
m o</w>
e in</w>
00 </w>
E n
ari o</w>
tr es</w>
al u
it és</w>
U N
de m</w>
al iz
L e</w>
f ac
u g
m at
S ie</w>
wer den</w>
n ous</w>
as s</w>
ce p
prin cip
m il
pr i
si ons</w>
emb er</w>
“ </w>
p h
e ar
est ab
pro ces
n en</w>
t w
E n</w>
o d</w>
w ere</w>
min istr
an do</w>
in t
id as</w>
si d
t ab
ni cht</w>
is s
t ure</w>
pay s</w>
di ff
p i
ic es</w>
ven tion</w>
o ur
u ti
di rec
bu t</w>
R </w>
mor e</w>
s am
le v
a k
at e
g es
ro l
re gi
a si
gén ér
s '</w>
Un ited</w>
w ould</w>
res pec
r igh
a ff
om </w>
parti cip
O r
w el
inter national</w>
b </w>
ter r
de b
in i
pl o
u d
pu blic
em ent
en d</w>
ä n
a z
l ec
pa í
te e</w>
on ales</w>
t or</w>
th er
am ente</w>
an c
di es
th ere</w>
O N
do cu
organ iz
for me</w>
or es</w>
m é
naci onal</w>
b il
li e
en g
id ades</w>
ar rol
pro bl
hu man
s ol
é n</w>
der ech
wor k</w>
er i
per i
el s</w>
f re
á n</w>
un ci
ver y</w>
A l
y our</w>
e p
v ir
i f</w>
o s
ac c
ab or
e w</w>
el y</w>
f ol
” </w>
m p
pro tec
a il
t ou
inform ation</w>
S ch
cr im
as t</w>
con t
velop p
r an
el les</w>
k s</w>
h al
co ur
Europe an</w>
comm un
dé velopp
b re</w>
lo w
n om
p en
ses sion</w>
h om
the y</w>
h i
consi der
d at
th o
es tr
is chen</w>
an y</w>
Sec ret
th ese</w>
con tribu
c as
in t</w>
bi én</w>
emb re</w>
U </w>
est a</w>
te ch
f ir
am ent
T </w>
f t</w>
d ass</w>
ce tte</w>
ig n
an t
ap pro
h ad</w>
vi ol
Com mit
ung s
al ement</w>
pr im
cl ar
si ch</w>
St ates</w>
ti on
P </w>
prés ent
in stitu
k en</w>
tic le</w>
b es
N aciones</w>
n '</w>
eff ec
id o</w>
Commit tee</w>
j o</w>
de l
Un idas</w>
concer n
al i
au ch</w>
em a</w>
A ss
arrol lo</w>
ver s
es te</w>
e ur</w>
or s</w>
i ento</w>
par t
de v
ord in
ati n
res ul
inter nation
olo g
re port</w>
B e
d en
be t
ñ os</w>
Uni on</w>
b re
in di
w n</w>
m es
le ur</w>
G r
ar t
u se</w>
T he</w>
c an
poli ti
Co unci
! </w>
in a</w>
g ar
ab il
tri es</w>
h r</w>
développ ement</w>
Counci l</w>
on g</w>
M in
su ch</w>
de u
ad ministr
c am
ic al</w>
s a</w>
organ is
A d
cap aci
si e</w>
fi ci
sul t
con di
p ul
po l
ro s</w>
ac tu
wi th
si ble</w>
f am
f e
str uc
tam bién</w>
F </w>
is l
j et</w>
r u
Conse il</w>
parti cul
sin d</w>
m ul
re com
ati on
u v
en f
m un
p end
se g
o ci
ti me</w>
m emb
w en
me t
Est ados</w>
Ass emb
Or gan
pro vi
é l
c entr
n or
ar e
m ust</w>
s ur
ter min
st at
contin u
con s
200 5</w>
c ri
O </w>
d on
ab aj
be i</w>
m ente</w>
h is</w>
o der</w>
h an</w>
um an</w>
j o
th ro
in st
t y
b li
atin g</w>
wir d</w>
nec es
A us
. .
in es</w>
ne w</w>
ti m
sid ent</w>
wi e</w>
au tres</w>
dro its</w>
Com isión</w>
B </w>
F r
s olution</w>
ac tion</w>
c el
cu p
te ur</w>
ma y</w>
program me</w>
ü ber</w>
d ra
rap port</w>
A u
man d
2 0
o f
h er
on ly</w>
v ol
f a
ch il
1 5</w>
z u
P r
D i
E r
for e</w>
coun tries</w>
L es</w>
H o
crim in
ou vern
l an
z a</w>
ar ticle</w>
n at
ob serv
pers onn
t om
200 4</w>
ab les</w>
co oper
g re
3 0</w>
1 2</w>
Uni es</w>
mi ento</w>
finan ci
200 0</w>
des arrollo</w>
serv ices</w>
e urop
F or
paí ses</w>
Conse jo</w>
so cial</w>
tic a</w>
2 0</w>
é v
d om
z e
re present
pers on
is su
cer ta
t ant</w>
z i
public </w>
en e</w>
H er
er ci
v ari
i ent</w>
ses i
w ar
Con vention</w>
un d
y ec
s er</w>
tr at
E x
n um
il s</w>
j e</w>
S u
in to</w>
M r</w>
t s
ci on
le urs</w>
en ci
200 1</w>
al is
in f
res olu
pr iv
i que</w>
G ro
b ec
es pe
in ten
us ti
ö n
é ta
au s</w>
ef for
M on
ch ar
ég alement</w>
f ait</w>
200 3</w>
I I</w>
as ed</w>
par t</w>
pro mo
í cu
l am
im pl
wh o</w>
a il</w>
A c
d ar
f em
app lic
i o</w>
P o
con stitu
G o
or y</w>
ab out</w>
200 6</w>
d ay</w>
ap lic
M ar
pro ce
ag es</w>
t al
re qu
pe op
li ci
n os</w>
develop ment</w>
in forme</w>
v al
u t</w>
a de
ag rap
f s</w>
tic al</w>
pro pos
un der</w>
h el
L </w>
í o
Ét ats</w>
200 7</w>
ch an
b en
si ón</w>
en c
per ío
sch af
di es</w>
ur idad</w>
por ts</w>
ur ity</w>
e conom
situ ation</w>
in cre
00 0</w>
pu e
en n
ein er</w>
ques tion</w>
sé cur
so ur
po ur
ativ es</w>
som e</w>
l it
import ant</w>
ob jec
p ati
m ati
op ér
m er</w>
ac t</w>
ac ti
í </w>
an n</w>
par agrap
we en</w>
o h
v ous</w>
wh en</w>
P ré
bet ween</w>
h t</w>
sécur ité</w>
v or
m an</w>
t és</w>
righ ts</w>
tr abaj
ic o</w>
el ec
e br
au tor
no w</w>
mo st</w>
200 2</w>
pro yec
com me</w>
posi tion</w>
l in
pl ace</w>
ev er</w>
ma de</w>
ac ces
A b
f aci
id a</w>
Presid ent</w>
in dic
g er
or is
1 1</w>
li ch
M e
th an</w>
D e
exam in
è res</w>
tech n
sup port</w>
g et</w>
e -
m a</w>
t an
au se</w>
ti g
gro up
t al</w>
en ces</w>
en vir
ti onal</w>
S e
c ré
un der
on -
al mente</w>
fir st</w>
re d</w>
om en</w>
perío do</w>
te gr
sp é
im p
man y</w>
o v
g res
com pl
tic </w>
er v
ah r
ari os</w>
ent os</w>
z ur</w>
ob lig
s ex
I s
derech os</w>
1 0
f av
i le</w>
Pro gram
j ur
c o</w>
pu bli
b un
to dos</w>
ü r
ú blic
peop le</w>
thro ug
cu esti
ein en</w>
li ke</w>
pol í
[ </w>
hab en</w>
gu e</w>
y o</w>
L e
I N
com un
s -
ré gi
á r
n ou
i e
en do</w>
5 0</w>
p er</w>
t ex
b en</w>
am iento</w>
au f
r a</w>
t ous</w>
tho se</w>
pr is
o tr
I C
dé ci
em s</w>
po int</w>
ob ier
gu i
en ne</w>
vo ir</w>
ces s
re con
n er
pro b
pro f
K om
k t</w>
ic ul
í an</w>
w s</w>
er o</w>
« </w>
sh i
wh at</w>
» </w>
ta ke</w>
y a</w>
ci vi
em plo
. 1</w>
h uman</w>
vi ew</w>
pr ès</w>
pro du
fic ation</w>
k ön
es to</w>
] </w>
po pul
an ces</w>
w ay</w>
c al
é conom
w ur
dr en</w>
e duc
ing s</w>
con tre</w>
p le
con clu
s ist
ay s</w>
A fr
f ur
t el
ar on</w>
a po
ai ent</w>
ini ti
ex pres
is ten
spe ci
bu d
is h
p úblic
200 8</w>
contr a</w>
s ed</w>
it en</w>
f ul
in de
li z
syst em</w>
y -
pos sible</w>
ícu lo</w>
f l
trav ail</w>
fu er
f aire</w>
fu l</w>
d onn
.. .</w>
con sult
B er
effor ts</w>
g er</w>
L '</w>
su iv
me e
con tro
ti onn
respon s
ne ed</w>
y ear
it er
h an
ari a</w>
ar se</w>
se ñ
r .</w>
u al</w>
m ö
bi en</w>
gen eral</w>
Q u
pl ac
protec tion</w>
ati s
pl an
h at</w>
b le
tr y</w>
li chen</w>
program a</w>
ac k
P er
end a</w>
fol low
l at
k om
mu j
particul ar</w>
si ve</w>
se e</w>
espe ci
1 4</w>
c é
sig n
s an
in tegr
V </w>
sp ec
vern ment</w>
r is
n é
f in</w>
ag re
m ê
or der</w>
en en</w>
ob je
y e
res olution</w>
l ég
ur s
naci onales</w>
s olu
dis posi
x im
al ity</w>
ke it</w>
i f
wel l</w>
ñ o</w>
av o
inform ación</w>
dro it</w>
tw o</w>
ques tions</w>
pl an</w>
ré solution</w>
Europ e</w>
ß </w>
n ach</w>
me as
r it
di ese</w>
génér al</w>
d a
1 8</w>
ex per
resolu ción</w>
sesi ones</w>
af ter</w>
di ci
vi ci
I l</w>
st and
tro s</w>
Con fer
au th
am ent</w>
am os</w>
c a</w>
o ver</w>
ur e
t able</w>
N </w>
ex p
Pré sident</w>
for c
ma is</w>
de man
com b
m s</w>
w omen</w>
S o
1 3</w>
ch er
chil dren</w>
p e</w>
emb ros</w>
a is</w>
inter nacional</w>
c ou
gl ob
2 5</w>
j usti
medi das</w>
H </w>
e urs</w>
A m
t -
k l
tic as</w>
uti lis
exam en</w>
up o</w>
st ell
ú n</w>
s or
pre par
t out</w>
spe cial</w>
n er</w>
fem mes</w>
T r
at ten
in s
ag en</w>
M </w>
ari at</w>
id enti
a in</w>
der n</w>
us ed</w>
program mes</w>
year s</w>
Presid ente</w>
tiv o</w>
m y</w>
i es</w>
g un
for m</w>
un ser
g el
ac k</w>
th em</w>
h y
pro jet</w>
w ä
i x</w>
f ig
t as</w>
Sec ré
é li
B o
throug h</w>
com pr
dis crimin
ent a</w>
st e</w>
ain st</w>
G </w>
i b
u er
isi on</w>
si n</w>
M it
cur r
nu ev
1 .
dur ing</w>
em os</w>
w w
par te</w>
acc ord
s en
ó m
am p
M .</w>
de leg
re ce
mul ti
h or
inclu ding</w>
c at
c le
ag ainst</w>
ö r
c li
al ité</w>
co urs</w>
W or
N U
co ordin
enf ants</w>
re comm
ar á</w>
str at
mes ures</w>
inv esti
o l</w>
parti es</w>
po lic
j our</w>
ter s</w>
kön nen</w>
er g
R o
is che</w>
ass ist
ho w
pro gres
me dic
si bil
gi e</w>
mil li
ven ción</w>
ch o</w>
igh t</w>
nom bre</w>
er t</w>
wen n</w>
nor m
wh ere</w>
li ber
ain si</w>
a ur
comp le
impl ement
ve au</w>
2 .
n on</w>
si on
an der
estab lis
200 9</w>
í as</w>
am e</w>
l en</w>
id os</w>
ou g
i de
ag ement</w>
D E
e j
how ever</w>
f ér
4 .
al y
internation ale</w>
al le</w>
ent ly</w>
mis e</w>
gen er
p ár
di al</w>
con form
ü n
D ec
al th</w>
be ing</w>
1 6</w>
art ículo</w>
cu li
Ét at</w>
sour ces</w>
con óm
com e</w>
ta in
ati onal</w>
obier no</w>
it o</w>
est á</w>
c as</w>
reg ul
Est ado</w>
mê me</w>
ma ke</w>
ta ire</w>
in str
r ig
end re</w>
A C
– </w>
b ase</w>
esti m
applic ation</w>
u di
g ar</w>
cul tur
num ber</w>
E U</w>
j or
* </w>
parti culi
hom me</w>
l ée</w>
li mit
St ate</w>
p al
b an
• </w>
aus si</w>
in du
e z</w>
sit e</w>
activ idades</w>
vi du
proyec to</w>
v es</w>
fo ur
c ad
ma y
ma in
re aliz
activ ités</w>
v en</w>
d ament
in al</w>
li che</w>
si s</w>
R é
righ t</w>
eu x</w>
de termin
mo cr
V or
ther e
at en</w>
et y</w>
pe ti
ter i
Inter national</w>
ch t
fü hr
g ouvern
ig r
re qui
terr oris
ch ang
re ci
c in
un ter
coun try</w>
D es
ain e</w>
re ment</w>
pati ents</w>
n et</w>
génér ale</w>
leg isl
m g</w>
jec t</w>
1 7</w>
tiv os</w>
D E</w>
adop t
memb res</w>
ag r
vi e
indi vidu
derech o</w>
ho tel</w>
l and</w>
é tab
Secret ar
th re
n on-
pe ut</w>
re présent
k ann</w>
z um</w>
s k
it ä
i h
ar es</w>
sam e</w>
p ur
st en</w>
sch en</w>
c k
pu est
ein em</w>
t t
G e
sig ni
sh o
Assemb lée</w>
ig en</w>
ad di
N o</w>
su m
ou t
1 8
conf lic
diff er
s tri
po st
ci r
T I
an cia</w>
se in</w>
terr it
deu x</w>
qui p
h ar
E in
human os</w>
m is</w>
with in</w>
dis cu
M ember</w>
is h</w>
ir es</w>
P l
spé ci
b ar
ra f
ra it</w>
ne h
ch er</w>
c ould</w>
D o
ef ec
dur ch</w>
1 3
ser vici
c lo
on g
é t
2 4</w>
G u
europ é
o k</w>
lo w</w>
do it</w>
con ven
ex </w>
abil ity</w>
fic </w>
né cess
au t</w>
form ul
ble a</w>
it al</w>
R es
m os</w>
Ho tel</w>
199 9</w>
er es</w>
A sam
tiv a</w>
v ic
es p
Asam blea</w>
n a
assist ance</w>
se con
parti e</w>
G obierno</w>
at er</w>
M o
ar ly</w>
al o
to tal</w>
av ail
d am
pu esto</w>
1 5
6 0</w>
ai d</w>
l ement</w>
i d</w>
ye ar</w>
econom ic</w>
ch o
p ou
c ent
a ños</w>
er en</w>
no te</w>
re fer
prof es
d ont</w>
h in
mil it
h ere</w>
p as
pre mi
á c
fon c
regi onal</w>
ev alu
A R
human it
condi tions</w>
sh all</w>
di g
l ab
S eg
te urs</w>
la w</w>
h igh
ü ber
pri or
bo th</w>
in d
isten cia</w>
ss en</w>
d res
l ed</w>
r ati
no v
st ar
ad or</w>
f e</w>
o tros</w>
enci as</w>
Secré taire</w>
u x</w>
ä r
person as</w>
p ass
fam ili
ci d
gr an
tre at
mee ting</w>
met tre</w>
ta ken</w>
lev el</w>
un s</w>
t em
vi ties</w>
fo is</w>
so li
t ación</w>
cel ebr
v or</w>
Assemb ly</w>
shi p</w>
2 1</w>
ni ños</w>
bun al</w>
int é
meas ures</w>
se p
G es
pue de</w>
dies er</w>
ad ores</w>
e qu
Go vernment</w>
de fin
c a
19 8
oc cup
ho w</w>
N or
gar anti
ô le</w>
rel ativ
L os</w>
or a</w>
c ent</w>
m igr
P al
commun ic
su ff
h er</w>
serv ice</w>
bi li
b asi
personn es</w>
urs os</w>
po se</w>
n ur</w>
comm it
proces s</w>
A N
an a</w>
faci lit
be fore</w>
h ac
establis h
opér ation</w>
ex peri
K on
are a</w>
bu il
h ol
u t
acti vities</w>
re f
respec to</w>
th en</w>
su c
at t
in tro
ord re</w>
s em
fur ther</w>
R E
form a</w>
ment al</w>
ab er</w>
avo ir</w>
ma in</w>
er n
prov isi
ent re
de ber
bec ause</w>
Organ isation</w>
sec urity</w>
o cup
ex is
s al
Secret ario</w>
Par li
i ón</w>
ou s
there fore</w>
institu tions</w>
mi embros</w>
ti f</w>
I h
Un ter
ä l
a prob
m al
docu ment</w>
aplic ación</w>
implement ation</w>
éta it</w>
b ro
de be</w>
S y
de clar
to do</w>
concern ant</w>
m ento</w>
ti ene</w>
ed ad</w>
chan ge</w>
s ans</w>
k ed</w>
C or
d ate</w>
seg uridad</w>
a près</w>
or ig
nat ur
es a</w>
e ig
C u
t ung</w>
q </w>
c ro
x i
uc le
re li
pers onal</w>
wur de</w>
ti fs</w>
fi ed</w>
polic y</w>
import ante</w>
ex t</w>
se gu
signi fic
re ad
2 2</w>
di t</w>
si ones</w>
ac tions</w>
públic a</w>
N o
19 </w>
mo di
enc y</w>
fam il
tou tes</w>
ab ili
C an
Parli ament</w>
cad re</w>
ati f</w>
ch te</w>
st a
S e</w>
at en
T ri
é ment</w>
Is ra
u te</w>
per man
provi de</w>
m b
trabaj o</w>
e ach</w>
w ar</w>
ig e</w>
s .</w>
resul t
h en</w>
K o
rec ursos</w>
dra ft</w>
are as</w>
e li
muj eres</w>
pa ix</w>
di </w>
an z
popul ation</w>
Pro to
b ased</w>
u si
n ah
tiv es</w>
as pec
pris es</w>
der s</w>
2 3</w>
avail able</w>
app li
Par lam
4 0</w>
ap pu
an aly
follow ing</w>
F in
wor ld</w>
d ol
Di rec
apo yo</w>
ent al</w>
as soci
dis tribu
S r.</w>
sec tor</w>
er ung</w>
leg al</w>
sin ce</w>
respec t</w>
paí s</w>
ad dres
v ing</w>
he it</w>
cooper ation</w>
form ation</w>
res our
h ist
us o</w>
with out</w>
O ff
ir m
ac cep
l ine</w>
en cour
duc tion</w>
uti liz
o ver
e conóm
p un
+ </w>
I D
z e</w>
ig h</w>
3 1</w>
h a
em ente</w>
mp li
p le</w>
comp te</w>
b les</w>
j un
s atis
k no
L i
instr um
Gr upo</w>
dé r
publi que</w>
dur ante</w>
re i
ass ur
Europ ä
al gun
pro por
j ust</w>
e ti
oug h</w>
g em
it es</w>
P re
b as
cri p
loc al</w>
ic os</w>
re co
ar r
ra is
n ing</w>
finan c
deb ate</w>
ve z</w>
syst ème</w>
situ ación</w>
em o
v o</w>
ev en</w>
poli tical</w>
ver s</w>
n i</w>
e i
cor respon
tur a</w>
en de</w>
pre ci
w er</w>
th ing</w>
y ing</w>
tr uc
ch a</w>
dat a</w>
inter es
g est
le ci
ar ds</w>
b el
I S
sist ema</w>
ist a</w>
st e
us s</w>
sec u
pár raf
servici os</w>
A s
f il
n ucle
b is</w>
a is
do se</w>
pro cé
dis pon
su per
t ar
tic o</w>
politi que</w>
er on</w>
ren forc
res sources</w>
op ini
co opération</w>
bi en
envir on
per o</w>
contin ue</w>
s et</w>
po in
he alth</w>
program as</w>
gi es</w>
pre v
ess enti
am bi
investi g
fuer z
appro pri
o ire</w>
emb ar
Organ iz
om s</w>
Gro up
c et</w>
ig u
bud get</w>
y- General</w>
t ation</w>
re uni
import ance</w>
no ch</w>
nec ess
c ase</w>
as í</w>
p s</w>
tech ni
contro l</w>
i di
G ouvern
us es</w>
m om
ens ure</w>
schaf t</w>
in fr
è mes</w>
iv ent</w>
l l</w>
Secretar y-General</w>
fun dament
s m
se ver
ch es</w>
ar be
nu estr
dé clar
mat eri
D é
R ap
et z
d ou
ate urs</w>
am e
to das</w>
mar k
j or</w>
cor e</w>
issu es</w>
Pr ä
is ti
k on
gr ap
économ ique</w>
fig ur
ation en</w>
mati ère</w>
finan cial</w>
so it</w>
C E
S er
m ü
mo y
recomm end
í n
recom end
l or
ges ch
ati c</w>
ell ement</w>
2 6</w>
ent en</w>
qu é</w>
st en
2 8</w>
s ,</w>
Com mis
s on
tz en</w>
Gouvern ement</w>
si de</w>
mis mo</w>
c ada</w>
t é
t sch
tor s</w>
tra di
pres ent</w>
1 7
re lev
T h
D is
Group e</w>
d ure</w>
b us
sol l
issu e</w>
Program me</w>
c aus
pu esta</w>
C O
z ar</w>
Gro up</w>
aff ec
a im
1 00</w>
op </w>
t ent</w>
ex plo
po dr
an ci
pr est
u es</w>
V I
z w
ab r
fér ence</w>
mo ins</w>
min u
ac coun
wh ile</w>
en di
organis ations</w>
g s</w>
af in</w>
recom mand
ne go
tr ain
is ter
memb ers</w>
en den</w>
si gui
no tam
abil ité</w>
administr ation</w>
notam ment</w>
in ici
go od</w>
des tin
Seg uridad</w>
pa z</w>
proces o</w>
treat ment</w>
ten er</w>
su st
emplo y
v el</w>
b t</w>
estab leci
otr as</w>
S ou
ti g</w>
se hr</w>
do ivent</w>
go vern
ure au</w>
M a
do es</w>
é tu
em as</w>
M E
and s</w>
2 7</w>
t ly</w>
pl y</w>
est udi
G er
H e
cam bi
eff ic
st ud
r o</w>
ic as</w>
der ni
cooper ación</w>
de t</w>
Con vención</w>
e quip
om e</w>
L .
al en</w>
c ell
cuesti ones</w>
ber e
l abor
ab o
por teur</w>
ni veau</w>
com par
an k</w>
T er
s ci
ac uer
pu is</w>
viol ence</w>
be g
m i</w>
as istencia</w>
le t
fic ación</w>
ab e</w>
com pro
M i
v ue</w>
S pe
v ed</w>
ag enda</w>
politi ques</w>
se ign
personn el</w>
ari as</w>
vo te</w>
inv ol
cor por
it er</w>
c op
L as</w>
ul t
l ess</w>
tr ic
po ten
Kom mission</w>
olog y</w>
r è
V i
S erv
provi ded</w>
ne u
atten tion</w>
resour ces</w>
ed s</w>
rel ación</w>
commun au
at ely</w>
g li
lo i</w>
m ob
á n
im iento</w>
j our
fr on
t ar</w>
D er
uv ent</w>
differ ent</w>
organiz aciones</w>
al isation</w>
im mer</w>
Sec urity</w>
fu e</w>
o le</w>
m et</w>
D ev
c all
T A
col lec
I ra
con struc
des de</w>
f é
ä u
me jor
discu s
e der
ré uni
adop ted</w>
inter nacionales</w>
t emp
inform ations</w>
acces s</w>
re du
necess ary</w>
C ar
2 9</w>
M en
no tre</w>
6 .
mü ssen</w>
tr ès</w>
diff ér
us am
di a</w>
s ous</w>
1 4
en z
z on
s ing</w>
ven ir</w>
av ait</w>
g n
F on
dis tin
civi l</w>
cuesti ón</w>
ex erci
ge b
d ades</w>
p an
su ite</w>
T o
pr ác
ahr en</w>
au g
gi ven</w>
neh men</w>
Confer ence</w>
thre e</w>
s af
di rig
3 .
ob st
reg istr
M an
tan to</w>
Europ a</w>
Her r</w>
pr endre</w>
gro up</w>
inté gr
œ uv
b ur
Tri bunal</w>
ú l
da ß</w>
man i
p éri
t un
d y</w>
reli gi
párraf o</w>
ar t</w>
co st
de mocr
particip ation</w>
str eng
certa in</w>
c en
n al</w>
g a</w>
st ü
br es</w>
produc tion</w>
ic an</w>
four n
char g
R O
ex e</w>
qu e
un ter</w>
am en
paragrap he</w>
ac cor
en erg
pl en
read y</w>
ser a</w>
U S
comm on</w>
ad v
discrimin ation</w>
du e</w>
t ema</w>
qu er</w>
So cial</w>
a i</w>
b est
igh ts</w>
is se</w>
nou vel
dé b
i de</w>
am éli
améli or
in ess</w>
a ño</w>
diff icul
Der ech
el d</w>
docu ment
capaci dad</w>
E l
ti en</w>
i ble</w>
amp li
paragrap h</w>
Dev el
a di
ni vel</w>
dat os</w>
s alu
wor king</w>
t ul
con se
con cep
5 5</w>
ex ist
ori ties</w>
R ec
C .
por te</w>
In stitu
effec tive</w>
fu ture</w>
f en</w>
l ong</w>
péri o
port ed</w>
ativ a</w>
c ar</w>
v ou
H u
er n</w>
tor es</w>
é cu
Devel op
ti mes</w>
Z e
aci a</w>
ti gen</w>
eh en</w>
Inter nacional</w>
ó r
n am
fun c
jec u
Re gi
est án</w>
k tion
lu gar</w>
Re pública</w>
t et</w>
de f
ù </w>
lar es</w>
Con stitu
s aid</w>
me hr</w>
sti ll</w>
199 8</w>
indu stri
at or</w>
europé enne</w>
ch a
si do</w>
Au f
mu y</w>
ex clu
th ir
ré pon
v ement</w>
sub st
év alu
v a</w>
ab </w>
ty pe</w>
ati que</w>
c y</w>
au v
peri od</w>
el t</w>
polí tica</w>
may or</w>
glob al</w>
reg ard</w>
sec tion</w>
lar s</w>
o ù</w>
f ace</w>
0 .
and l
o wn</w>
g t</w>
it s
l ast</w>
es tin
se a</w>
itä t</w>
dol lars</w>
rel ated</w>
J ah
per tin
au tre</w>
cu enta</w>
º </w>
P e
pres ente</w>
ON </w>
proces sus</w>
off ici
educ ation</w>
w ays</w>
embar go</w>
lo g
ac y</w>
mis sions</w>
an te
I n</w>
ativ as</w>
xi ème</w>
C ol
lo gr
pro pi
b ar</w>
em pl
i ques</w>
hac er</w>
con duc
pe uvent</w>
mo d
ast a</w>
t as
wir k
h igh</w>
man agement</w>
cor rec
œuv re</w>
ex ten
tic os</w>
emb le</w>
Par ties</w>
D e</w>
am ong</w>
a tr
A mer
sibil ity</w>
adop tion</w>
H au
déci sion</w>
deci sion</w>
esti ni
mi entos</w>
19 7
st af
ges tion</w>
g le
cu ando</w>
t els</w>
Off ice</w>
U m
e a</w>
M al
cr is
re as
wor k
lie u</w>
er ia</w>
ou se</w>
z we
1 6
dé lég
ap pe
fre e</w>
n ú
ti r
duc ation</w>
justi ce</w>
d ó
it ation</w>
ro le</w>
cas o</w>
él é
pue den</w>
5 .
it or
er os</w>
k es</w>
pro p
bes o
pr ise</w>
N ew</w>
B el
Ar be
staf f</w>
trav aux</w>
docu ments</w>
T e
hab ía</w>
í fic
cas es</w>
f al
ist an</w>
k o
t on
dies em</w>
it em</w>
le y</w>
A p
étab li
hi er</w>
strat é
lar ge</w>
we e
al th
particuli er</w>
s ó
y e</w>
dev rait</w>
op port
comm er
donn ées</w>
p ap
secon d</w>
ré sult
ww w
lie ß
ü ck
en core</w>
li n</w>
R ights</w>
ra ient</w>
rece iv
tou te</w>
ain es</w>
tain ed</w>
gr av
emp le
o un
san té</w>
B r
e very</w>
W e
y o
p ens
al idad</w>
h av
v ul
di o</w>
dies es</w>
mer o</w>
mu ch</w>
T ra
T ur
& </w>
im e</w>
ro om</w>
on der
protec ción</w>
ex écu
ti l</w>
vo tre</w>
par ty</w>
v é
al im
temp s</w>
es fuerz
a w
l er</w>
W eb
deb en</w>
aci on
T E
ab a</w>
ear ch</w>
organiz ations</w>
k te</w>
for ce</w>
Uni ón</w>
av ant</w>
hel d</w>
Con férence</w>
res s
M is
mu ch
so lici
an za</w>
lar g
é lec
it os</w>
deman de</w>
Ré publique</w>
I r
Develop ment</w>
vi e</w>
gr up
$ </w>
ag u
n ess</w>
wh e
relev ant</w>
tic s</w>
cu mpli
com pe
In form
do ch</w>
nat ure</w>
ci </w>
bili dad</w>
Ira q</w>
ti p
re v
an ge
ten ir</w>
Ch ar
ti z
mark et</w>
l s</w>
Re public</w>
fu gi
s s</w>
fun cion
ta in</w>
ti tre</w>
u ary</w>
hel p</w>
Min ist
re duc
le ad
don c</w>
di vers
www .
fic ina</w>
comun ic
mon di
communic ation</w>
s pr
B ar
c '</w>
es os</w>
kom men</w>
tra it
i ev
speci fic</w>
ic k
ori ent
cas os</w>
d av
ré g
O b
me ans</w>
dó lares</w>
I V</w>
l et</w>
v om</w>
tu d</w>
qu ality</w>
con st
c al</w>
alo gue</w>
qu el
m ill
ten u</w>
B es
mit ted</w>
ate ur</w>
eng ag
N u
an im
S al
onn ement</w>
Ü ber
tr on
m l</w>
ful l</w>
hab it
b al
he cho</w>
ai de</w>
trans par
j a</w>
commun ity</w>
or t</w>
M ad
ac tive</w>
nú mero</w>
lan gu
Confer encia</w>
1 ,
produc ts</w>
v ig
usam men
te il
ty -
to day</w>
ad ap
M emb
ac cu
0 ,
incre ase</w>
wi ch
P ati
di ver
w al
tz ung</w>
mé dic
dur es</w>
ne eds</w>
E S
ex emp
cour se</w>
r aci
ell en</w>
M il
al ter
m uni
pres u
mö g
_ </w>
pl az
w n
hal ten</w>
in ation</w>
t ob
li fe</w>
arm as</w>
Ad d
se in
e fic
poli ce</w>
cu st
ö s
R us
ex cep
deci sión</w>
N e
je ts</w>
ac t
si a</w>
sel f</w>
im prov
ar ti
war ds</w>
al ready</w>
5 6</w>
ep t
w end
milli on</w>
r ur
b ri
an is
po bl
en ing</w>
ti enen</w>
Y or
ég ard</w>
L u
a z</w>
P NU
sel ec
B ureau</w>
gre at</w>
R A
basi s</w>
develop ing</w>
strat eg
in k</w>
disposi tions</w>
b a</w>
hr en</w>
ein es</w>
train ing</w>
T re
O c
sh e</w>
tro u
satis fac
ar mes</w>
t ariat</w>
territ ori
solu tions</w>
qu ent</w>
de puis</w>
Ad ministr
coordin ation</w>
e ts</w>
A f
dé c
mé di
ser i
P h
l es
st än
us ing</w>
fac t</w>
be lie
sé ance</w>
b or
g es</w>
lu i</w>
ic kl
lis s
E F</w>
ty p
m .</w>
À </w>
il le</w>
g ni
lab or</w>
N ov
c au
b it
th s</w>
fin d</w>
ar a</w>
ier en</w>
for der
en h
m ag
H uman</w>
a de</w>
dé fin
k in
P u
ke y</w>
ph y
inclu de</w>
m ou
gu ar
h op
h asta</w>
eh t</w>
Wor ld</w>
pu t</w>
iss ance</w>
curr ent</w>
k a</w>
C N
si eur</w>
sm all</w>
salu d</w>
ful ly</w>
id er</w>
d ar</w>
ach iev
jo urs</w>
be au
pre vi
h ay</w>
prim er</w>
T ran
pré ci
n ung</w>
Mon sieur</w>
des ign
ac e
è rement</w>
fin al</w>
5 9</w>
só lo</w>
Inter net</w>
sch i
c er</w>
I II</w>
ma inten
cont ex
ben e
establish ed</w>
c n
poin ts</w>
5 8</w>
él abor
Mit gli
sch o
S tr
E C
Su b
pe ace</w>
ier t</w>
ti emp
par ten
Yor k</w>
b lo
tran si
dom aine</w>
int ér
es as</w>
c ab
w ant</w>
auth or
sch e</w>
si mil
E s
can not</w>
s pre
° </w>
ou tre</w>
20 10</w>
progres s</w>
rel acion
c are</w>
X </w>
agr icul
as es</w>
aten ción</w>
Derech os</w>
in o</w>
k tion</w>
group e</w>
regi on</w>
trans port</w>
ade más</w>
tur es</w>
sever al</w>
ac ción</w>
i os</w>
Z u
L a
l lev
ex o</w>
unser e</w>
k eine</w>
c entre</w>
s l
re ports</w>
dé f
res erv
Re present
est os</w>
pr is</w>
b est</w>
o th
pers ons</w>
el abor
an os</w>
qu o
ta king</w>
ter m</w>
ed a</w>
whe ther</w>
— </w>
i en</w>
ve aux</w>
su g
P ol
er te</w>
group s</w>
esfuerz os</w>
exam ple</w>
ish ed</w>
h en
particul arly</w>
inform es</w>
Proto co
nom bre
vari ous</w>
P or</w>
ch ap
exper ts</w>
S up
ter n</w>
t ement</w>
5 7</w>
Ar z
aff aires</w>
w ater</w>
polí ticas</w>
jec ts</w>
cr u
K </w>
con fer
ge ben</w>
Europä ischen</w>
En tw
esti ón</w>
p én
Y </w>
R el
medi ante</w>
appu i</w>
con secu
an other</w>
r ôle</w>
cris is</w>
certa ins</w>
abili dad</w>
f all
mö chte</w>
techn olo
ther ap
acuer do</w>
c y
v ent</w>
P ac
ju st
ate gi
h ay
grap h
eli min
r up
ih re</w>
F ran
í dic
gi bt</w>
proce di
buil ding</w>
de m
Hu man
fonc tionn
Com mun
pa ñ
nation ale</w>
p at
consider ed</w>
señ al
on ce</w>
sesi ón</w>
Europe a</w>
pend ant</w>
S tu
result ados</w>
í s
ex tr
l ong
p ag
pl ay
ig n</w>
ex pec
ne t
pr ac
probl ems</w>
mar co</w>
syst ems</w>
ci ty</w>
re view</w>
Sy st
N ational</w>
2 -
pr e</w>
man era</w>
j ou
e ur
gr ad
el l</w>
IC EF</w>
de más</w>
Commis sion
lig ht</w>
do c
m t</w>
ol d</w>
fr i
poten ti
stell en</w>
w in
so wie</w>
au to
pre ocup
s a
ä ch
e th
tiemp o</w>
en ded</w>
dis e
Dec ember</w>
B eh
it a</w>
F eder
to ur
f y</w>
par tes</w>
Co ur
ar ía</w>
resul ts</w>
est ed</w>
au ment
éri eur</w>
organ isation</w>
ous ly</w>
we ise</w>
6 1</w>
at ta
st u
C entr
th em
di d</w>
or ía</w>
D emo
ame work</w>
… </w>
encour ag
olog ical</w>
vie ws</w>
mon de</w>
4 5</w>
ac es</w>
ativ o</w>
. or
av ons</w>
s ure</w>
is te</w>
an o</w>
J an
m al</w>
no ti
199 7</w>
hal b</w>
Isra el</w>
un o</w>
ev a</w>
l l
posi ble</w>
per met
ma jor</w>
ce la</w>
cle ar</w>
con centr
z en</w>
d re</w>
ass en</w>
le vel
op or
requi red</w>
E U
tin gs</w>
S om
di fer
ist as</w>
rap ports</w>
con nec
con cre
té cn
w ard</w>
ac o
mo der
prés ent</w>
un t
imp act</w>
v isi
uni vers
gro w
ple ase</w>
spé cial</w>
3 5</w>
W ir
contribu tions</w>
appropri ate</w>
é ch
com </w>
am i
resul t</w>
n ament
objec tifs</w>
O S</w>
to o</w>
chil d</w>
we iter
di alogue</w>
h on
gi ve</w>
pl usi
consi dér
loc ated</w>
plusi eurs</w>
wä hr
cha que</w>
tra de</w>
Mis sion</w>
m as
ens emble</w>
reg ar
E special</w>
ac ts</w>
propos al</w>
hr er</w>
mill ones</w>
lég isl
sub ject</w>
ex tra
belie ve</w>
m ember</w>
a ir</w>
ti ge</w>
gr an</w>
G re
inde pend
Pati enten</w>
cat eg
n ext</w>
ci tiz
M u
L o
fundament al</w>
em pe
conform ément</w>
tam ente</w>
in corpor
4 -
o -
d ía</w>
agre ement</w>
J ap
wur den</w>
ati fs</w>
ci es</w>
estab lec
etz t</w>
algun os</w>
mat eria</w>
propor cion
fo cu
ec u
ci miento</w>
E S</w>
w oh
le d
pers on</w>
comun idad</w>
l ors</w>
conform idad</w>
3 -
ben ef
8 0</w>
n es</w>
zw ischen</w>
phy si
eri cht</w>
docu mento</w>
éta ient</w>
prés ente</w>
p aci
a x
obje tivos</w>
au tom
ur g
ann exe</w>
muj er</w>
am en</w>
probl em</w>
bus iness</w>
con soli
P or
ris k</w>
k now</w>
Mitgli ed
medi o</w>
cl as
cl am
est as</w>
UN ICEF</w>
gen ce</w>
pério de</w>
ä f
Spe cial</w>
as oci
Re g
ju dici
air s</w>
em pres
Entw ickl
ON U</w>
internation ales</w>
ve ill
st er
assur er</w>
m uss</w>
men os</w>
res ta
estr uc
ar án</w>
nucle ar</w>
el lo</w>
s enti
promo tion</w>
me chan
part ment</w>
l ä
D ur
a -
concern ed</w>
D ans</w>
de pend
fi er</w>
mani ère</w>
inf ec
multi lat
n ach
étab liss
eg t</w>
O p
Prä sident</w>
Par te</w>
st and</w>
pu és</w>
mun do</w>
k er</w>
accoun t</w>
S ept
e .</w>
condi ciones</w>
N ous</w>
Min istr
Commission er</w>
e ver
un tos</w>
F re
é ducation</w>
at ori
f ech
en a</w>
es ts</w>
ß en</w>
et te</w>
sust ain
fr ica</w>
ul y</w>
d y
6 2</w>
ó g
de ten
n ing
d é</w>
com peti
er r
ist en</w>
d ays</w>
ber nament
n ég
régi on</w>
ch all
O ficina</w>
é qu
sec ret
jur idi
D iv
st er</w>
résult ats</w>
gl ement</w>
incre ased</w>
is m</w>
ari an</w>
ré alis
Ih nen</w>
pro ject</w>
fo und</w>
educ ación</w>
se par
Ch ina</w>
ta ins</w>
ar ri
sel on</w>
ac qu
comm uni
d ri
s at
gr ès</w>
di ce</w>
ma king</w>
J une</w>
O F</w>
ar ch
reco gni
pro jets</w>
hor as</w>
min im
level s</w>
it u
import ancia</w>
de ta
Sept ember</w>
con ten
f er</w>
pobl ación</w>
m enti
import antes</w>
er k
com erci
d est
techn ical</w>
effec ts</w>
famil y</w>
. m.</w>
cr it
Afr ique</w>
cl in
U E</w>
én é
qu elle</w>
p auv
l ist</w>
v in
ci -
T H
t an</w>
som e
o se</w>
addi tion</w>
compr is</w>
man ten
stud y</w>
acc ès</w>
M un
hal f</w>
sou ha
ic ro
b on
tro is</w>
s ing
profes si
at s-
cultur al</w>
ander en</w>
reuni ón</w>
comp li
con sé
J un
ch ten</w>
tic les</w>
h ö
priv ate</w>
Serv ice</w>
pu eb
S i
gi que</w>
e p</w>
soci ales</w>
ab e
es per
rel atives</w>
princip ales</w>
déc embre</w>
grup os</w>
.or g</w>
al low
call ed</w>
d re
inst all
communau té</w>
a k</w>
ex pl
cl é
1 2
concer ne</w>
gu bernament
puest os</w>
con sul
S I
ro oms</w>
Un is</w>
ol s</w>
v alu
C I
z ah
develop ed</w>
ass ess
especi ally</w>
recommand ations</w>
resta ur
initi atives</w>
probl èmes</w>
pro te
w led
inf lu
señ or</w>
propos ed</w>
europ ä
gouvern ement
res earch</w>
mar ch
Cour t</w>
experi ence</w>
Ko so
ex tre
mes ure</w>
z ed</w>
at ory</w>
I m
an ia</w>
sec teur</w>
ann ée</w>
aliz ación</w>
at te
am b
col labor
c k</w>
pl é
chang es</w>
recommend ations</w>
Afr ica</w>
fi eld</w>
thir d</w>
am end
U n</w>
ra z
E ur
f ew</w>
z eu
p es
g ast
tz t</w>
fon ds</w>
ats- Unis</w>
ec anis
lor s
in cid
¿ </w>
u su
re ments</w>
l on
nu clé
ati ques</w>
C i
ar o
particip ación</w>
199 6</w>
a fr
or e</w>
Pro du
qu ement</w>
am oun
milli ons</w>
e u</w>
tr ag
O M
b ack</w>
p ack
B ericht</w>
individu al</w>
Can ada</w>
7 0</w>
ac ter
conf ér
in nov
sta aten</w>
j '</w>
er as</w>
Des arrollo</w>
t on</w>
sch n
jur ídic
centr al</w>
er ing</w>
consider ation</w>
per spec
appro ach</w>
ti </w>
ó n
bec ome</w>
ob </w>
ail leurs</w>
A L
CN .
S ud
des pués</w>
loc ation</w>
Z usammen
li o</w>
to ge
F o
con jun
kno wn</w>
in ci
for ces</w>
ä h
abo ve</w>
ann ex</w>
ma ins</w>
en th
ter ms</w>
h ic
instrum ents</w>
seg un
aspec ts</w>
recomend aciones</w>
qu a
ej empl
li b
P -
can di
A S
tob er</w>
vis ant</w>
e ,</w>
contr ôle</w>
sep ti
dé mocr
oblig ations</w>
c ause</w>
aug ment
al ia</w>
Po li
posi tions</w>
pré occup
in su
y er</w>
consult ations</w>
puest as</w>
acces o</w>
group es</w>
id ence</w>
addres s</w>
ann ées</w>
A D
p ho
ver sion</w>
iss ant</w>
por ting</w>
ou ver
s ay</w>
probl emas</w>
l and
posi ción</w>
proyec tos</w>
up on</w>
dici embre</w>
ti tul
of ten</w>
cont act</w>
p sy
gr upo</w>
v ision</w>
re té</w>
bet ter</w>
soci été</w>
envir onnement</w>
B i
ß e</w>
toge ther</w>
pen di
fl ex
Dec lar
pe di
P .
th ink</w>
wend ung</w>
can is
Koso vo</w>
premi ère</w>
res tric
obje tivo</w>
re cher
Per man
Ar ticle</w>
cri b
Ét ats-Unis</w>
y ,</w>
exerci ce</w>
trans fer
fo od</w>
accord ance</w>
dé termin
to wards</w>
f aut</w>
Nov ember</w>
ser ont</w>
off ers</w>
O R
fin den</w>
sub mitted</w>
alim ent
car ri
addi tional</w>
tab le
n ame</w>
norm as</w>
h au
rel ations</w>
ê t</w>
continu ed</w>
Uni vers
actu al</w>
in jec
9 0</w>
terr or
energ y</w>
B u
schi ed
nah men</w>
tur al</w>
reci b
fr amework</w>
receiv ed</w>
en jo
j us
pro per
soll te</w>
cu al
VI H</w>
con oci
e jecu
re al</w>
en seign
exis te</w>
tr ä
end s</w>
gen cy</w>
pro li
provisi onal</w>
í ci
cu m
d in
mon itor
so ient</w>
con na
6 3</w>
accord ing</w>
defin i
mer c
f our</w>
neces ario</w>
réuni on</w>
accor d</w>
En g
requi rements</w>
de li
institu ciones</w>
C H
R u
b aj
Par tes</w>
é tran
K in
lu tte</w>
un es</w>
Pl an</w>
g estión</w>
Program a</w>
c le</w>
ti s
sch ließ
ma xim
ever y
go ing</w>
qu el</w>
Tran s
techni que</w>
es se</w>
renforc er</w>
Fr ance</w>
er an</w>
af ec
sou lig
disposi ciones</w>
provisi ons</w>
m ecanis
man u
su sp
pr en
be k
wh y</w>
tex t</w>
fech a</w>
Le y</w>
bo dy</w>
man if
ór gan
i -
ze ich
ec e</w>
un ity</w>
cambi o</w>
nego ti
ru les</w>
te fois</w>
en ess</w>
ag ain</w>
of fr
auth orities</w>
ap prov
ö ff
it able</w>
soci ety</w>
ph arm
produ its</w>
eig n</w>
v í
C ON
Co de</w>
ol es
dam it</w>
p el
1 .</w>
f ec
pro t
d ann</w>
vi el
regi ón</w>
ist es</w>
con ci
princip al</w>
évalu ation</w>
environ ment</w>
nou veau</w>
fa ç
b éné
compro mis
r on
L eb
ju in</w>
gran de</w>
comp an
le -
f is
n a</w>
b a
G l
estr ategi
v ida</w>
ge h
for man
u ment</w>
ante -
legisl ation</w>
opor tun
tur n</w>
P ri
in dé
en z</w>
an teri
deber ía</w>
p li
pe up
200 </w>
neces idad</w>
A pr
loc ales</w>
an exo</w>
ich er
1 -
at u
aci onal</w>
at o</w>
vo c
o ds</w>
posi tive</w>
jo int</w>
ON U
Ges ch
cer ti
S ta
de mo
délég ation</w>
p age</w>
pres sion</w>
o w</w>
f ar</w>
si m
em en</w>
ti s</w>
C entre</w>
no ta</w>
im it
ge gen</w>
lich keit</w>
he ures</w>
t le</w>
effec tiv
stand ing</w>
cust om
T im
pres id
e ded</w>
f ast</w>
ap </w>
199 5</w>
poli cies</w>
J uly</w>
le ast</w>
at ur
vi v
PNU D</w>
le ar
î tre</w>
viol encia</w>
ser ve</w>
char ge</w>
j uni
em e</w>
tec n
3 3</w>
fé lici
provi des</w>
ke iten</w>
pro grès</w>
tw are</w>
at ure</w>
initi ative</w>
es ,</w>
ori es</w>
produc t</w>
tu </w>
z er
s en</w>
st a</w>
st ate</w>
un den</w>
financ ement</w>
Mitglied staaten</w>
espe cial</w>
l ament
lig h
mat ter</w>
ad qu
s ent
alter nati
bi a</w>
d an
form s</w>
B ur
por ter</w>
w ish</w>
r s</w>
ar ticles</w>
ad ul
R om
k t
mé canis
M me</w>
afr ic
dev raient</w>
3 2</w>
conflic t</w>
p p
ex ter
E conom
s c
signific ant</w>
op en</w>
eff ici
abaj o</w>
pertin entes</w>
- -
ti que</w>
dies en</w>
t schaf
tra g</w>
mondi ale</w>
es fer
pro ve</w>
par tam
vol unt
Pro bl
go vernment</w>
stat ement</w>
respon sibility</w>
5 4</w>
utilis ation</w>
A T
h ace</w>
regi onales</w>
Human os</w>
mar ke
Á frica</w>
an to</w>
car g
un til</w>
so sten
mis s
eff et</w>
com pon
ap par
olog ía</w>
M I
. com</w>
bes onder
ejempl o</w>
i k
materi al</w>
contribu tion</w>
ay ant</w>
in struc
deleg ación</w>
off er</w>
hav ing</w>
Rap porteur</w>
Un idos</w>
nuev o</w>
pen ses</w>
tex te</w>
oc t
parti r</w>
t aux</w>
exemp le</w>
re le
la is</w>
4 8</w>
id ing</w>
ä tz
ade cu
Parlam ent</w>
citiz ens</w>
ex pos
inter ven
ac ro
pl ay</w>
su jet</w>
Organiz ación</w>
si x</w>
com es</w>
= </w>
av aient</w>
ant age</w>
é si
gu er
dé j
pro jects</w>
employ ment</w>
organiz ación</w>
fi x
adop té</w>
sex ual</w>
do wn</w>
re mo
a qu
M A
P A
S te
ne imit
re ported</w>
Tre at
ne g
pr on
enf ant</w>
r ate</w>
se e
intro duc
aro und</w>
E R
déj à</w>
al ways</w>
li min
fav or
n is</w>
re d
re vis
ma jor
we b
éri e
ex cell
T el</w>
clo se</w>
d one</w>
vi er</w>
cons en
tiv as</w>
3 4</w>
juni o</w>
re ch
P en
Demo cr
th us</w>
si cher
faç on</w>
V ic
ri es
déb at</w>
inclu ded</w>
Tr abajo</w>
moy ens</w>
sour ce</w>
lo o
ran ge</w>
or al</w>
Oc tober</w>
tr ad
Pal estini
particip ants</w>
au c
bi e
Apr il</w>
f -
ê te</w>
5 00</w>
ét at</w>
han del
ah ora</w>
sch e
nécess aires</w>
dur able</w>
b an</w>
er ed</w>
ge w
deu xième</w>
wi de</w>
con fi
de mand
alth ough</w>
A ff
n om</w>
b on</w>
nécess aire</w>
ain s</w>
in as</w>
pr acti
em er
pl ans</w>
pré par
tip o</w>
t ting</w>
li </w>
vi a</w>
ib les</w>
vi ent</w>
J usti
ci ud
ju di
C C
i or</w>
An n
3 6</w>
effec t</w>
z o</w>
v ac
fic ations</w>
en qu
ú n
T am
il y</w>
é ten
Constitu tion</w>
n t</w>
r y</w>
premi er</w>
me tho
ill et</w>
5 -
l t</w>
concern ing</w>
ac er
je doch</w>
co ver
sy n
Bo ard</w>
bene fici
enn ent</w>
id en</w>
commer ce</w>
con su
gu es</w>
of f</w>
úl tim
mejor ar</w>
stu dies</w>
capaci ty</w>
re ich
suff is
fu tur
hop e</w>
fi que</w>
mee tings</w>
ü h
amélior er</w>
m on</w>
evalu ación</w>
aj e</w>
i ve</w>
6 -
stand ards</w>
neces idades</w>
Do cu
ab an</w>
T ech
ab l
respon se</w>
op h
ver ty</w>
sigui entes</w>
Mun dial</w>
M IN
7 .
sou s-
li t</w>
mom ent</w>
se u
w ür
ativ os</w>
un que</w>
W </w>
mun dial</w>
ag er</w>
sci enti
f lu
mi ti
tr u
opini on</w>
tem por
y et</w>
bi o
h im</w>
á mb
représent ant</w>
M ay</w>
se ul
enn es</w>
w it
min or
4 4</w>
bes ch
Min is
saf ety</w>
vo y
segu ir</w>
e la</w>
des e
Mi embros</w>
iss ent</w>
o k
for t</w>
rec ent</w>
li ties</w>
nego ci
g ung</w>
ré e</w>
d -
opér ations</w>
seg ún</w>
v r
for tal
deleg ation</w>
otr a</w>
économ iques</w>
techn ology</w>
ser ait</w>
ré gl
d ang
ß er
A .</w>
ex ig
hist or
ci r</w>
F l
es cu
th ank</w>
C r
soci edad</w>
apo y
stat us</w>
des truc
manif est
5 1</w>
re ç
E N
at ors</w>
S icher
ri er</w>
Con go</w>
sub si
déclar ation</w>
nouvel les</w>
re cu
to da</w>
perman ent</w>
in cl
dé s
sep t
pro hi
á tica</w>
L än
Mar ch</w>
plan i
sex u
procé dure</w>
t ado</w>
trat a</w>
mon ths</w>
curr ently</w>
P res
W in
Vor sch
ti mo</w>
recon oci
représent ants</w>
ab solu
orig inal</w>
soll ten</w>
C am
l än
o fici
judi cial</w>
natur al</w>
inter pre
3 7</w>
ar s</w>
per forman
pos sibil
t op
ju illet</w>
des arrol
organis mes</w>
h ô
discus sion</w>
co s
2 ,
comp any</w>
otr o</w>
a im</w>
i ones</w>
R ich
on ed</w>
incre as
Arz neimit
tu al</w>
des p
presu puesto</w>
S i</w>
rec or
tr im
cul ture</w>
„ </w>
i cial</w>
suiv i</w>
end ant</w>
In v
ce ux</w>
con serv
O n</w>
TH E</w>
seri ous</w>
e y</w>
Memb res</w>
beso ins</w>
û t</w>
S p
4 9</w>
R I
concer n</w>
sept embre</w>
consoli d
i endo</w>
oc ca
tion en</w>
inv est
� </w>
3 0
bel ow</w>
gubernament ales</w>
l leg
Parlam ento</w>
pl om
res ol
dis pos
probl ème</w>
consi der</w>
ent er</w>
at er
ver b
govern mental</w>
cou p</w>
sti m
ch am
pre hen
al can
O ri
La w</w>
po bre
á fic
financi ación</w>
Z i
nation ales</w>
man dat
hu i</w>
Ih re</w>
pr u
ar me</w>
terroris mo</w>
ein z
regar ding</w>
es .</w>
ho sp
P RO
trait ement</w>
cont ext</w>
andl ung</w>
Aus tr
rè g
mon dial</w>
liber t
qu alité</w>
on c
cap ital</w>
az a</w>
direc t</w>
régi on
il le
dis pens
cré ation</w>
much os</w>
D eu
si gue</w>
re m
l ad
st ay</w>
terroris me</w>
S an
prim era</w>
emp h
Ac t</w>
ti ent</w>
emple o</w>
we ap
lis te</w>
éli min
Afr ican</w>
qui er</w>
requ est</w>
gre ater</w>
crip tion</w>
autor ités</w>
on a</w>
y l
pe ace
pro vis
D ar
en cu
sen si
3 9</w>
intro du
l ar</w>
sp ir
w ed</w>
certa ines</w>
2 8
l í
sing le</w>
ol óg
ref lec
t lich</w>
tou jours</w>
B il
gast os</w>
Jun ta</w>
vul ner
m ight</w>
li m
ab s
f lo
Go vern
str u
recomm ended</w>
in e
res pe
ic s</w>
- S
respon sible</w>
cost s</w>
im prove</w>
pobre za</w>
declar ación</w>
la quelle</w>
vel y</w>
ch i
pauv reté</w>
ß nahmen</w>
7 5</w>
gest ell
respons abilidad</w>
ag o</w>
sec ré
c tim
n ed</w>
f ail
mo is</w>
Par lement</w>
wh ole</w>
An wendung</w>
w ing</w>
prac tic
Con ven
Treat y</w>
promo te</w>
wel come</w>
emplo i</w>
Pr in
po verty</w>
Af g
C ro
á si
M ill
L A</w>
pro puesta</w>
cons ci
á g
nuestr o</w>
h é
nuestr a</w>
ch e
Fr au</w>
pl at
environ mental</w>
W o
medi a</w>
unser er</w>
crim e</w>
ti tu
en se</w>
ces s</w>
se ine</w>
p f
K ol
ch ec
P an
ég alité</w>
ra di
rel ative</w>
po wer</w>
m icro
ig er</w>
ad oles
ter me</w>
grow th</w>
B .</w>
O R</w>
typ es</w>
we it
au en</w>
ten d
rap porteur</w>
19 6
fre ed
Se ñ
col abor
y s</w>
gem ein
ob jet</w>
c os</w>
conf irm
J u
y en</w>
V o
B en
pl ann
d ly</w>
especi almente</w>
Wor king</w>
conclu sions</w>
zon as</w>
ési mo</w>
n ers</w>
m ess
he ute</w>
A t
a th
T S</w>
pré v
invol ved</w>
Econom ic</w>
prác tica</w>
Organiz ation</w>
li bre</w>
sel ves</w>
führ t</w>
hay a</w>
exis ting</w>
wi e
qu ali
ví ctim
wor ks</w>
ne eded</w>
minu tes</w>
Jan uary</w>
auc une</w>
is ra
rais on</w>
D P</w>
nég oci
ho urs</w>
g as</w>
ju lio</w>
Ze it</w>
y p
P ak
techni ques</w>
l ack</w>
enci es</w>
z one</w>
dur ch
as truc
ré s</w>
fon dament
medic al</w>
ni e</w>
represent ative</w>
cual quier</w>
cab o</w>
strateg y</w>
no ted</w>
ré du
M r.</w>
fun ción</w>
proce dure</w>
b in
igu al
de c
relativ as</w>
é x
efec tos</w>
è ve</w>
plaz o</w>
ent emente</w>
discrimin ación</w>
oct obre</w>
ci onal</w>
str y</w>
h app
K ar
milit ary</w>
oth ers</w>
so f
ar bi
gen der</w>
l au
hab e</w>
oper ation</w>
ñ as</w>
hab ían</w>
har mon
au jour
I tal
agre ed</w>
medi os</w>
in cu
n é</w>
pur su
pour rait</w>
dom aines</w>
5 3</w>
lu cha</w>
br au
probl ema</w>
compe ten
ê ts</w>
S oci
o t</w>
monitor ing</w>
sit es</w>
min ist
el e
organiz ation</w>
pro position</w>
nov embre</w>
ade qu
aus ge
suiv re</w>
TI ON</w>
i ti
essenti al</w>
pou v
medi da</w>
con du
septi embre</w>
des empe
L A
form es</w>
al low</w>
R ev
d ings</w>
sigui ente</w>
per fec
observ ations</w>
ä hr
mand at</w>
lo ok</w>
en der</w>
P our</w>
oh ne</w>
deci siones</w>
qu ences</w>
in spec
el los</w>
objec tif</w>
währ end</w>
A ug
soci ale</w>
é tant</w>
ag no
opport unity</w>
ma ch
Add .
8 -
com ing</w>
humanit arian</w>
sp i
ru le</w>
ander e</w>
è ge</w>
capaci tés</w>
au près</w>
si mp
all er</w>
technolo gies</w>
ne ue</w>
den en</w>
entr o</w>
wled ge</w>
ord onn
L an
autor idades</w>
logr ar</w>
v isión</w>
fav eur</w>
ear ly</w>
os as</w>
simil ar</w>
ati sti
propos als</w>
déci sions</w>
j an
le gen</w>
cl aim
ke ep
S T
ff en</w>
mou voir</w>
dic tion</w>
es ses</w>
obier nos</w>
iss en</w>
as k</w>
Ch il
k le
st re
ici </w>
2 9
rur al</w>
l assen</w>
béné fici
promo ver</w>
internation aux</w>
num er
woh l</w>
entre prises</w>
sustain able</w>
gran des</w>
centr es</w>
T O</w>
t est</w>
ch ez</w>
min is
col on
nah me</w>
form as</w>
fi ve</w>
val ue</w>
inter est</w>
mis es</w>
Men schen</w>
ir s</w>
plo y
ist án</w>
ri ch
mon tant</w>
as h
medic inal</w>
en vis
au mento</w>
infr astruc
gro und</w>
im medi
for ward</w>
algun as</w>
con ver
terroris m</w>
s avoir</w>
direc tive</w>
re fu
Fon ds</w>
cli m
7 3</w>
A g
viol ations</w>
sp ace</w>
practi ce</w>
respons abilité</w>
uni que</w>
main tien</w>
C A
ma i</w>
la g</w>
si endo</w>
f as
dé penses</w>
ge gen
recon na
es pec
som mes</w>
4 2</w>
st or
ecu tive</w>
G ar
si e
arr ang
ar reg
3 00</w>
bes ser
ren seign
ci er
w ell
Re ch
inten si
nouvel le</w>
gle ich
L in
pre gun
vic times</w>
no vi
tra ff
tri bun
person ne</w>
l its</w>
Ver ein
gen om
fuer on</w>
A demás</w>
C .</w>
sel b
it self</w>
hab er</w>
plac ed</w>
M A</w>
H C
bere its</w>
vou dra
mob il
ag ed</w>
E conóm
blo od</w>
ent u
a par
ob ten
ciud ad
tu bre</w>
seul ement</w>
cir cul
Web </w>
regul ar</w>
per mit
zwe i</w>
v re</w>
fic ar</w>
isi ème</w>
ze it</w>
f om
amoun t</w>
garanti zar</w>
en -
inde m
pe que
cal idad</w>
legisl ación</w>
mé tho
St and
3 8</w>
prehen sive</w>
beg in
Li ber
le tz
in -
4 1</w>
s anc
C hr
F am
mp tom
rè glement</w>
Ch air
comb in
si an</w>
o ires</w>
in gen</w>
h tt
qu ier
F ebr
ac ep
m ar</w>
nombre ux</w>
M y
res puesta</w>
besonder e</w>
E N</w>
fon dos</w>
oc tubre</w>
ex port
a ,</w>
ze i
to ok</w>
di men
qu ant</w>
Her r
unter stü
Min ister
represent ante</w>
suc cess
mu si
g lich</w>
li egt</w>
B ür
clin ical</w>
nou veaux</w>
vir tud</w>
yo ung</w>
ejecu ción</w>
dé ten
fi f
cu n</w>
mom ento</w>
organis mos</w>
correspon di
en ed</w>
ann u
V ol
k un
com pos
4 7</w>
mar s</w>
as eg
novi embre</w>
B os
and a</w>
y es</w>
c all</w>
4 6</w>
t ol
< </w>
c ès</w>
may oría</w>
vé ase</w>
tain ing</w>
all s</w>
gr ö
ran k
ab ord
bud ge
me jor</w>
rec ord
A sia</w>
deci sions</w>
est ar</w>
Commun ity</w>
mer ci
con tra
Tam bién</w>
con tains</w>
M or
cre ate</w>
al ités</w>
E .</w>
e au</w>
ad ro</w>
ie ve</w>
N acional</w>
is er</w>
étran g
m ir
ay ud
tou tefois</w>
vis it
ag ne</w>
in ver
Ob serv
C our</w>
pré vention</w>
comple te</w>
b ási
chall eng
ul ar</w>
ar ing</w>
Ä n
ti l
p ed</w>
bo dies</w>
a .</w>
Cu ba</w>
lis h</w>
z ones</w>
ti k
cel u
t ados</w>
us er</w>
Proto col
10 .
f ahren</w>
streng th
princip ios</w>
ev ents</w>
l '
S .</w>
Sou th</w>
direc tion</w>
ay u
performan ce</w>
ur ing</w>
en ting</w>
Europä ische</w>
an g</w>
aff irm
g an</w>
fa is
ad t</w>
bi et
m ari
pro mouvoir</w>
ci do</w>
Inform ationen</w>
me in
ach ieve</w>
recher che</w>
faci lities</w>
we b</w>
ni um</w>
199 4</w>
all en</w>
il li
excell ent</w>
5 2</w>
gr and</w>
i hrer</w>
199 0</w>
a che</w>
re merci
d ah
pap el</w>
paragrap h
Jah r</w>
fr an
secré tariat</w>
represent antes</w>
re ach
partam ento</w>
tri bunal</w>
jur is
G em
o g
injec tion</w>
princip le</w>
k m</w>
di re</w>
potenti al</w>
pro to
arm ement</w>
it t</w>
a th</w>
éri que</w>
v os</w>
er se</w>
lo go</w>
ver si
J e</w>
en fer
c .</w>
htt p</w>
is ch</w>
car act
4 3</w>
En tsch
cr it</w>
situ ations</w>
7 7</w>
Aff airs</w>
pu bl
examin er</w>
part ement</w>
confér ence</w>
i x
vol on
ac tos</w>
w o
adoles c
Än der
di ó</w>
investig ación</w>
renforc ement</w>
di plom
ö l
0 -
ch ed</w>
H ouse</w>
cu al</w>
ag ésimo</w>
tab les</w>
p ast</w>
nuev as</w>
develop </w>
grav es</w>
p ir
r il</w>
produc tos</w>
ec er</w>
ad ver
h än
struc ture</w>
pon er</w>
mit tel
represent atives</w>
cre ación</w>
pru eb
ícu los</w>
cu anto</w>
actu ellement</w>
p .m.</w>
é lev
For um</w>
pa in</w>
l age</w>
obje to</w>
star t</w>
fun ds</w>
l ands</w>
pro ch
tex to</w>
on en</w>
instr ument</w>
comunic ación</w>
nor mes</w>
re ques
H in
men cion
in ner
igual dad</w>
obst ante</w>
f ahr
beau coup</w>
d on</w>
qu elles</w>
distribu tion</w>
H y
mandat o</w>
im pos
y .</w>
w ol
por que</w>
Ber ich
gouvern ement</w>
S A
ser á</w>
ier ra</w>
princip les</w>
plan te
collabor ation</w>
clas si
D es</w>
J oh
P A</w>
to x
oblig ation</w>
J ahren</w>
administr ative</w>
ur y</w>
moy en</w>
DE S</w>
Her z
conflic tos</w>
m ich</w>
Aug ust</w>
rec ru
proce dures</w>
is ts</w>
indu stry</w>
princip es</w>
Gr und
h and</w>
aci as</w>
st oc
biet et</w>
Tech n
or ders</w>
keep ing</w>
st ed</w>
therap y</w>
addres sed</w>
T ab
órgan os</w>
st ehen</w>
a unque</w>
sin o</w>
ra ther</w>
J o
expres sed</w>
fav or</w>
anc ed</w>
Be i
extra ordin
migr ation</w>
hab il
Entwickl ung</w>
podr ía</w>
ma yo</w>
führ en</w>
trat amiento</w>
compan ies</w>
jus qu'</w>
Beh andlung</w>
ré c
ju d
lich er</w>
Me di
manten imiento</w>
Secretar ía</w>
p ic
be half</w>
d entro</w>
se hen</w>
limit ed</w>
ra in</w>
lu t
pré sid
Bes ch
tig t</w>
v ec
qu </w>
ver schied
B al
el eg
S h
effec tu
li er</w>
con tained</w>
Ber e
aujour d'</w>
est ros</w>
paci entes</w>
scho ol</w>
pe u</w>
av is</w>
ing res
gan z</w>
re ven
de mon
communic ations</w>
pou voir</w>
eb en</w>
cons ist
, 000</w>
de dic
suff ici
qu els</w>
hom e</w>
Centr al</w>
I ni
Div ision</w>
organ es</w>
aseg ur
é co
) .</w>
í gen
abs ence</w>
8 .
manu fac
ab en</w>
l és</w>
cumpli miento</w>
ister ed</w>
re form</w>
F und</w>
9 .
se en</w>
ér er</w>
tr a</w>
élé ments</w>
ab ly</w>
As soci
je unes</w>
par ents</w>
famil le</w>
rei chen</w>
inten tion</w>
ang lais</w>
e di
Amer ican</w>
ei ther</w>
v </w>
A k
donn er</w>
U r
aliz ed</w>
h at
se tzen</w>
f au
u tz
sl av
bre ak
sup plé
subsi di
associ ated</w>
av ril</w>
or den</w>
est ado</w>
cons ac
prev ent</w>
vie le</w>
si ch
Minister io</w>
stand ard</w>
d ated</w>
nuclé aires</w>
civi le</w>
ID A</w>
is en</w>
ch em
difficul t</w>
voudra is</w>
reuni ones</w>
de cre
ra .</w>
prov in
er gie</w>
ad ress
estudi o</w>
mar zo</w>
analy sis</w>
cor rup
objec tive</w>
z ación</w>
ri f
Afg han
fi ques</w>
syst èmes</w>
f est
oper aciones</w>
me et</w>
off ice</w>
an y
O I
présent ant</w>
senti do</w>
agu a</w>
lic k</w>
beso in</w>
pal estin
condi tion</w>
pr atiques</w>
ci o</w>
fi le</w>
occa sion</w>
gr ave</w>
ant ly</w>
muni cip
au cun</w>
des ign</w>
funcion arios</w>
empres as</w>
w es
t ées</w>
) ,</w>
au m</w>
mat ters</w>
st atisti
tro l
réuni ons</w>
al g
Direc tor</w>
al ors</w>
législ ation</w>
S -
re ad</w>
form er</w>
es tic</w>
continu ación</w>
ju ici
présent é</w>
p ág
o t
ré fugi
a ider</w>
obst ac
6 5</w>
g é
present ed</w>
U S</w>
throug h
dés armement</w>
am a</w>
particuli èrement</w>
march é</w>
comp ens
gouvernement ales</w>
au d
z o
gestell t</w>
mo dern</w>
a ún</w>
carri ed</w>
neu en</w>
6 4</w>
nucle ares</w>
renseign ements</w>
económ ico</w>
ad amente</w>
k g</w>
P P
da zu</w>
a g</w>
F is
li ving</w>
k ten</w>
De partment</w>
focu s</w>
esp aci
com prehensive</w>
económ ica</w>
part ner
um en</w>
In forme</w>
estim m
commit ment</w>
provis oire</w>
p il
un .org</w>
mis ión</w>
genom men</w>
comp ati
off icial</w>
langu age</w>
S ra.</w>
d ent</w>
fin det</w>
s po
UN C
effor t</w>
ur r
direc tly</w>
comerci o</w>
high er</w>
aliz ation</w>
th an
establec er</w>
iz ed</w>
activ ity</w>
h emos</w>
vari os</w>
su it</w>
E ast</w>
I t</w>
g obiernos</w>
A u</w>
R at</w>
étu de</w>
ven ant</w>
ein ige</w>
recom man
U C
parti ci
è te</w>
H IV</w>
basi c</w>
st ep
deci ded</w>
doc tor</w>
ul ation</w>
son dern</w>
construc tion</w>
ü r</w>
é qui
lis is</w>
fi cial</w>
E -
pr ó
Afghan istan</w>
M rs</w>
stän di
T his</w>
ac to</w>
peri o
öff ent
princip e</w>
ex isten
ci pl
exécu tion</w>
Rap port</w>
procé dures</w>
ant wor
nécess ité</w>
ast ro
l as
document os</w>
Minist ère</w>
cur so</w>
ic ally</w>
tr as</w>
ing ly</w>
ation s
z entr
− </w>
dispon ibles</w>
an i
prov iding</w>
arbi tr
som eti
it ure</w>
previ ous</w>
he its
eg o</w>
ac tes</w>
al t</w>
to t
tor ture</w>
dah er</w>
prác ticas</w>
aff ir
rel ating</w>
ag encies</w>
u ve</w>
@ </w>
P a
dy nam
l anc
eb en
qu ently</w>
L ös
proli fer
sho w</w>
jan vier</w>
is pi
pon e</w>
B an
víctim as</w>
al isi
fir m
gouvern ements</w>
ent w
St at
Secret ariat</w>
through out</w>
nuev os</w>
conf lits</w>
nation aux</w>
c ó
wor ds</w>
dé e</w>
wirk ungen</w>
explo itation</w>
cap it
emph asi
ze ig
anci as</w>
in qui
ment aires</w>
dé ta
Commis s
Pal estin
en fo
crimin al</w>
N ach
st y
nuev a</w>
á lisis</w>
it ar</w>
be d
inst al
kno wledge</w>
Al l
m em
ci to
DE R</w>
hol d</w>
in ement</w>
D A
func tion</w>
en tra
k re
z ur
ñ a</w>
2 7
d om</w>
int érieur</w>
tor i
M ö
an s
UN I
pré cé
op tion</w>
du m</w>
ver wen
Ger many</w>
i i</w>
a ill
ti n</w>
si cht</w>
f ai
ph ase</w>
O per
ma chen</w>
E T</w>
fr ente</w>
B ed
mat éri
a way</w>
respons ables</w>
arreg lo</w>
f arm
des crib
stell ung</w>
He alth</w>
j etzt</w>
en contr
h es
El le</w>
wä h
par ts</w>
ir á</w>
sign ed</w>
fal ta</w>
espec ífic
europä ischen</w>
ent ar</w>
le ad</w>
vic tim
expec ted</w>
let ter</w>
mi eux</w>
sou tien</w>
gi ques</w>
enseign ement</w>
oper ations</w>
form ación</w>
Fr age</w>
rel ation</w>
resolu tions</w>
e uses</w>
ge hen</w>
procedi mientos</w>
ke ep</w>
objec tives</w>
be wer
av en
U ne</w>
m y
princip io</w>
pr o</w>
al er</w>
S ierra</w>
sof tware</w>
oc c
abr il</w>
Febr uary</w>
ro u
bo ok</w>
pal estini
fourn ir</w>
t l
donn é</w>
prior ity</w>
Ministr y</w>
person a</w>
Minist er</w>
contex to</w>
C E</w>
at oire</w>
Syst em</w>
Fon do</w>
le ist
indé pend
inté ress
su peri
juridi que</w>
pár r</w>
ill ed</w>
conf lit</w>
A l</w>
po ses</w>
ap s</w>
ent er
at or
administr ación</w>
z us
lors que</w>
pr ä
baj o</w>
Palestini an</w>
comm erci
b ack
ci as</w>
l ista</w>
sur veill
demon str
reques ts</w>
elec tr
os a</w>
mo sp
libert ad</w>
H ar
deb ido</w>
j et
199 3</w>
jo in
ess en</w>
lat er</w>
ác ter</w>
er ten</w>
établiss ement</w>
sem in
l ag
er ship</w>
Univers ity</w>
aci té</w>
straté gie</w>
con ce
ta kes</w>
mat ern
gen ous</w>
ier ung</w>
app el
weap ons</w>
mor tal
coordin ación</w>
car ácter</w>
c anc
al a</w>
amend ments</w>
Protoco le</w>
ô t</w>
si x
z -
F ren
re main</w>
Ch am
li ve</w>
gl y
gen cia</w>
Secré tariat</w>
sel f-
P S</w>
A ID
minim um</w>
bon ne</w>
- up</w>
se it</w>
ci v
a sign
f äl
adequ ate</w>
eff ets</w>
gén ero</w>
tran j
Ac tion</w>
mu cho</w>
s os</w>
contr at
un di</w>
m ir</w>
ir a</w>
it or</w>
sou vent</w>
weit ere</w>
prov ision</w>
on ia</w>
Ó N</w>
M ex
a war
fonc tion</w>
work ers</w>
enjo y</w>
dev ons</w>
d .</w>
O n
em ia</w>
com pu
i hr</w>
ge o
sel y</w>
ail y</w>
ac ciones</w>
M es
simp le</w>
F un
Ro y
com ment</w>
in é
grö ß
ges am
ge ht</w>
públic o</w>
Gem ein
a o
t ä
dev ant</w>
cle arly</w>
d ung</w>
ag it</w>
gel e
assess ment</w>
rece ive</w>
di go</w>
en ero</w>
Ar t
quo i</w>
dom estic</w>
C es</w>
Wir k
Arbe its
F A
n av
bie ten</w>
ind re</w>
tor al</w>
ing lés</w>
ju g
á logo</w>
mob ili
cour t</w>
sist emas</w>
bil at
cré d
técn ica</w>
Protocol o</w>
différ ents</w>
â ce</w>
ens a</w>
f ass
AN D</w>
dr uc
am ment</w>
p lic
hom mes</w>
ro ad</w>
ish ing</w>
gr acias</w>
inter nal</w>
europé en</w>
re fugi
challeng es</w>
integr ation</w>
redu ce</w>
posi bilidad</w>
wee k</w>
capaci tación</w>
au ßer
ag ra
co st</w>
t ée</w>
è ne</w>
concern s</w>
R ah
mp f
gan g</w>
D I
uni on</w>
ver tu</w>
Tr at
lit tle</w>
E s</w>
p ing</w>
inter és</w>
wie der</w>
As untos</w>
P un
kl är
re clam
gr o</w>
en st
Protoco l</w>
justi cia</w>
Por tu
su fici
soli dar
establish ment</w>
Nu eva</w>
nu tri
prepar ed</w>
maxim um</w>
J am
eng agement</w>
ni a</w>
P O
s ob
e il</w>
pro puestas</w>
arm ament</w>
a part
ste p</w>
promo ción</w>
régi ons</w>
av er
prot ég
H an
mechan is
C as
insu lin</w>
protec t</w>
k r
. .</w>
ayu da</w>
fin s</w>
w rit
is mo</w>
st atis
Ex per
a del
ami entos</w>
ed an</w>
199 1</w>
ab lement</w>
m us
p é
fin ally</w>
eri es</w>
intér êt</w>
fr ag
segun do</w>
re duction</w>
ac </w>
av i
pur pose</w>
design ed</w>
l é
- L
auto cht
j os</w>
Pro tec
regi ons</w>
ho y</w>
me ine</w>
Per s
ungs an
ta x
el ev
o x
re ally</w>
crim es</w>
sosten ible</w>
w an
k ur
exp lic
a dici
freed om</w>
t ely</w>
be li
ex tranj
u se
for eign</w>
requ ested</w>
I I
tr as
rég im
as es
De partamento</w>
K ing
profes i
do wn
preocup ación</w>
re -
br ing</w>
ra ft</w>
part ners</w>
agre ements</w>
tro isième</w>
res te</w>
sho wn</w>
fun ding</w>
go slav
me th
z ep
au tor</w>
le ft</w>
el n</w>
199 2</w>
m as</w>
professi onn
pro cur
ac ks</w>
O u
territ oire</w>
ig keit</w>
b in</w>
ve hic
ther n</w>
connec tion</w>
In di
inici ativas</w>
Gen er
pró xim
ª </w>
transi tion</w>
ar gu
acer ca</w>
un st
don de</w>
i cht</w>
pr atique</w>
dis cipl
hy dro
sup ported</w>
In du
B est
be gr
effic acité</w>
réfugi és</w>
po der</w>
é quip
H ol
com mission</w>
str ong</w>
form ed</w>
futur o</w>
Col om
Ar t</w>
TA D</w>
Ge or
d ías</w>
élabor ation</w>
aspec tos</w>
l y
S pi
conflic to</w>
sh or
victim s</w>
exp éri
qu anti
kin d</w>
eu se</w>
E jecu
plac ement</w>
t lichen</w>
ide a</w>
mecanis mos</w>
lar go</w>
ámb ito</w>
t élé
negoti ations</w>
on line</w>
ses sions</w>
ser ie</w>
menti oned</w>
achiev ed</w>
C ette</w>
co -
Add .1</w>
Mö g
result ado</w>
o fre
it ung</w>
bit te</w>
S in</w>
ten dr
dise ase</w>
d af
arbe it</w>
UNC TAD</w>
g ent
consult as</w>
dest ac
den n</w>
ag ue</w>
iz ación</w>
atr o</w>
he art</w>
u g</w>
to wn</w>
étu des</w>
1 er</w>
bil ity</w>
benef it</w>
In dia</w>
AID S</w>
ast e</w>
ma il</w>
ar ed</w>
mainten ant</w>
úl timo</w>
m us</w>
ap ply</w>
C e</w>
Fren ch</w>
t liche</w>
port ant</w>
ten ue</w>
p les</w>
Par t
tr o</w>
opini ón</w>
9 5</w>
al ität</w>
jour n
pl as
l lam
t ali
encour age</w>
h in</w>
pueb lo</w>
au x
au ton
bo o
in dispens
tin a</w>
efec to</w>
S um
fav our</w>
ri cht
ann t</w>
ann ual</w>
règ les</w>
vo tación</w>
v ill
p en</w>
di do</w>
av anc
a cht</w>
K u
déci dé</w>
Ter r
estrategi a</w>
politi k</w>
it et</w>
agre e</w>
conclu sion</w>
ON G</w>
Ma ßnahmen</w>
post es</w>
d '
be im</w>
re ach</w>
humanit aire</w>
3 ,
el en</w>
de al</w>
f ont</w>
Ser vici
sh op
d aily</w>
Eng lish</w>
perman ente</w>
ph one</w>
shi ps</w>
K or
trav aill
w o</w>
i g</w>
inclu des</w>
h acia</w>
equip ment</w>
norm al</w>
Amer ica</w>
S el
hu ma
rel ation
pro xim
C ap
solu ción</w>
M isión</w>
aprob ación</w>
initi al</w>
' t</w>
demand é</w>
adopt ar</w>
consen sus</w>
en carg
mo do</w>
comp éten
Bere ich</w>
s si
web site</w>
N º</w>
par le</w>
au teur</w>
orig in
S k
reas on</w>
l ung</w>
psy ch
te am</w>
5 0
affec ted</w>
j </w>
respec tiv
ver fü
défin i
än der
syst em
mi e</w>
vis it</w>
mu estr
pre vención</w>
ér ica</w>
al -
spéci ale</w>
con n
Represent ante</w>
vis ory</w>
co de</w>
bi d</w>
ev ent</w>
dis position</w>
Unter nehmen</w>
Po int</w>
wel t
r á
au di
po co</w>
C R
z ug
olo gie</w>
lon ger</w>
F ir
sanc tions</w>
e as
äl t</w>
ó dic
al ong</w>
some thing</w>
pr ice</w>
g ol
F u
step s</w>
wor d</w>
Pu blic
commer cial</w>
í tul
cont ent</w>
examin ar</w>
sch on</w>
Par ti
ma kes</w>
is cher</w>
jun to</w>
discus sions</w>
isi ones</w>
impl ement</w>
approv ed</w>
quel ques</w>
gr âce</w>
consult atif</w>
m ement</w>
daf ür</w>
ay er</w>
cu er
ítul o</w>
econom y</w>
over all</w>
re mains</w>
especi ales</w>
es h</w>
ej erci
a ï
per mettre</w>
intro duction</w>
fun ciones</w>
L age</w>
ad s</w>
nu estros</w>
dar auf</w>
imp lic
pati ent</w>
w ach
dom in
C O</w>
estableci miento</w>
d an</w>
figur a</w>
ar an</w>
compromis o</w>
ad ís
h and
mon ey</w>
m bo
mög lich</w>
ci- après</w>
popul ations</w>
oblig aciones</w>
b ir
practic es</w>
B ud
L on
con sum
stat ements</w>
at ures</w>
W omen</w>
se tzung</w>
wir tschaf
st age</w>
pre vention</w>
an as</w>
sh are</w>
refer ence</w>
distin c
abe i</w>
fig ure</w>
c ed</w>
tor y</w>
G ol
v igu
cre ated</w>
vigu eur</w>
manufac tur
er y</w>
T or
ent as</w>
spre ch
sch en
ex t
z es</w>
h aut</w>
analy se</w>
do sis</w>
re pres
mécanis mes</w>
ven es</w>
appro xim
fr u
es en</w>
eg al</w>
C ó
mon tr
procedi miento</w>
deci r</w>
flex i
ni ño</w>
re m</w>
ac cid
vol l
equip o</w>
invest ment</w>
present ación</w>
cré er</w>
Par is</w>
pl u
fre cu
Associ ation</w>
- term</w>
t ance</w>
lo t</w>
T ou
n s</w>
cal cul
wee ks</w>
Aus sch
fi é</w>
app el</w>
observ aciones</w>
i enda</w>
refu ge
t led</w>
commit ted</w>
Pre mi
délég ations</w>
ciudad anos</w>
incl uso</w>
uni ties</w>
qu eda</w>
de ment</w>
ó venes</w>
relacion adas</w>
increas ing</w>
N i
ur a</w>
establis h</w>
investi ss
Sch l
estruc tura</w>
7 -
effic ace</w>
respons able</w>
R ein
X X
them selves</w>
as se</w>
Co ordin
proper ty</w>
civi les</w>
iss ement</w>
instrum entos</w>
re cep
autocht ones</w>
g ir
w a</w>
m ung</w>
we it</w>
commit tee</w>
ti ques</w>
liber té</w>
mand ate</w>
streng then</w>
4 00</w>
re cours</w>
arm ed</w>
an álisis</w>
S itu
car go</w>
ch os</w>
d abei</w>
re main
l ang
t ary</w>
tr ices</w>
satisfac tion</w>
Jah re</w>
S U
B us
interes ts</w>
Gl ob
pun to</w>
il lici
tr agen</w>
anc y</w>
crit eri
gu t</w>
so on</w>
g .</w>
charg é</w>
applic ations</w>
ígen as</w>
p ér
cito y
tre ated</w>
ktion s
independ ent</w>
ein f
régi onal</w>
sy mptom
pre -
er fol
desempe ñ
sein er</w>
D I</w>
re a</w>
qu ées</w>
h ou
S pan
ins cr
exper tos</w>
H e</w>
pl ement</w>
d ates</w>
Dé clar
clim ate</w>
ag ents</w>
no tes</w>
ap preci
hab la</w>
Pen al</w>
prim ary</w>
ex er
asi mismo</w>
qu ante-
s í</w>
in en</w>
ah l</w>
en io</w>
m id
vo ie</w>
zon a</w>
aplic ar</w>
In formation</w>
pro positions</w>
emb ro</w>
consecu encia</w>
ri ti
requ ire</w>
it z
ries go</w>
B ank</w>
ex prim
sh ort</w>
D -
O S
er forder
so zi
o eu
c ally</w>
qua tre</w>
al ten</w>
n isse</w>
f év
th ings</w>
um s</w>
qu ite</w>
Ex ecutive</w>
derni er</w>
tin e</w>
Ini ti
dis par
ar res
inde pendi
peri ódic
h ä
hy po
susp en
Re présentant</w>
fron ti
z un
mis ma</w>
existen ce</w>
iz i
men ores</w>
F lu
acuer dos</w>
char acter
selb st</w>
an no
spe zi
em pre</w>
pre gn
cin q</w>
n un</w>
encu entr
F il
difer entes</w>
servici o</w>
Fin anz
e k
v éri
t elle</w>
co ver</w>
ev idence</w>
D u
th or
ins besondere</w>
produc ción</w>
I hren</w>
hist ory</w>
la un
F i
ré es</w>
viol ation</w>
en señ
th ough</w>
arm s</w>
pa y</w>
en forc
much as</w>
el ess</w>
ré se
S an</w>
nat ür
j óvenes</w>
indi qué</w>
re iter
estab ili
g am
infrastruc ture</w>
Prin cip
In don
qu isi
bili ties</w>
out side</w>
metho ds</w>
efic az</w>
a ise</w>
W ar
il ed</w>
del ines</w>
vig il
di álogo</w>
major ity</w>
vi de
di fic
D r
se tt
t es
reduc ción</w>
merc ado</w>
comm enc
Pré sid
Represent ative</w>
activ ité</w>
consi dé
he ad</w>
tre ten</w>
con stat
ë l</w>
min d</w>
M E</w>
restaur ant</w>
financi ères</w>
bur g</w>
u le</w>
tem as</w>
podr á</w>
schließ lich</w>
estableci do</w>
war en</w>
fév rier</w>
pri x</w>
dav antage</w>
Serv ices</w>
démocr atique</w>
g os</w>
issu ed</w>
relativ a</w>
i tre</w>
par mi</w>
sh </w>
cu atro</w>
com ité</w>
e ci
suc cess</w>
d ado</w>
di cho</w>
D '</w>
st är
t ér
King dom</w>
6 7</w>
implement ed</w>
ni vel
K r
consi gui
cat ég
la ws</w>
cru cial</w>
extre m
financi eros</w>
polic ía</w>
Declar ación</w>
l agen</w>
E .
er halten</w>
o d
th i
he iten</w>
ning una</w>
ktion en</w>
stell t</w>
capaci té</w>
mechanis ms</w>
fi z
enfer me
si gu
ar d
g éta
D aten</w>
pre ven
V en
si empre</w>
di re
compl ain
V ir
des halb</w>
r ates</w>
de tec
T he
en able</w>
Par ty</w>
deber ían</w>
financ ing</w>
hy per
kön n
S lo
h af
pres sure</w>
s û
s ent</w>
Z immer</w>
de ath</w>
k ra
re turn</w>
geh ör
ni veaux</w>
compl ement
migr ants</w>
al to</w>
ris que</w>
en es</w>
l ac
dar über</w>
Par a</w>
re forma</w>
ast er</w>
net work</w>
os os</w>
certa in
concep t</w>
ic amente</w>
pres s</w>
ch ron
vi el</w>
se an</w>
Déclar ation</w>
be w
at a</w>
Perman ente</w>
mar k</w>
pueb los</w>
un ser</w>
recom ienda</w>
appro uv
cep endant</w>
opport unities</w>
handel t</w>
ra dic
consider a</w>
adop ción</w>
régi onales</w>
qu ence</w>
augment ation</w>
es ia</w>
cir cum
aur ait</w>
últim os</w>
poin ted</w>
a h</w>
t elles</w>
accord s</w>
fac ult
el as</w>
nombre uses</w>
Am b
gr atu
Arbe it</w>
arrang ements</w>
st eht</w>
Memb ers</w>
0 1</w>
contro l
requ is
Ar gen
produ ce</w>
G i
re porting</w>
a port
V al
l ines</w>
nivel es</w>
public ation</w>
L ib
S IDA</w>
equ al</w>
cau ses</w>
E A</w>
at tr
l è
gen d</w>
9 6
ag e
Dé partement</w>
L is
mes es</w>
art ículos</w>
cin co</w>
fem me</w>
il la</w>
ré alisation</w>
plann ing</w>
Prä sid
x -
for table</w>
ach es</w>
S .
l ing</w>
en mi
estruc tur
produc ed</w>
tra it</w>
étu di
di f
unser en</w>
Me dic
wor den</w>
Pr im
Am érique</w>
Ci vi
é mati
N E
T R
cu adro</w>
ob tenir</w>
rur ales</w>
or g
professi onal</w>
pack age</w>
T V</w>
fri end
observ ed</w>
abl emente</w>
discu ss
ati onn
ré solutions</w>
inter vention</w>
cre ar</w>
de liber
resolu ciones</w>
L E</w>
a tri
plen amente</w>
al e
Per son
v ista</w>
con vention</w>
gener ales</w>
consecu encias</w>
Aus tri
Art ículo</w>
to ur</w>
neces it
entw ick
abili ties</w>
Kom miss
vo ted</w>
L and
t ungen</w>
vari as</w>
tecn ología</w>
b es</w>
r endre</w>
estudi os</w>
B ah
fron ter
recon struc
gu li
gr i
b ure
tradi tional</w>
li k
w id
ais on</w>
S pr
we il</w>
er gi
fonc tions</w>
individu als</w>
soci aux</w>
cer a</w>
enti tled</w>
H il
in sul
er sten</w>
fundament ales</w>
Pac to</w>
st ates</w>
possibil ité</w>
expres sion</w>
ai rement</w>
inv it
Re port</w>
pre fer
ambi ente</w>
hô tel</w>
aprob ado</w>
k er
fac tor</w>
plu part</w>
ré forme</w>
er ait</w>
ag n
as se
P R
ell ing</w>
fic ado</w>
br ingen</w>
pe li
li ation</w>
e qui
ci onales</w>
ver sit
anti -
ingres os</w>
AC I
F ri
vis to</w>
exper im
T E</w>
k ün
sec ción</w>
économ ie</w>
un ds</w>
cop e</w>
li br
ent en
ke hr
Ger man</w>
agricul ture</w>
cre cimiento</w>
peup le</w>
contex te</w>
h ouse</w>
pr ü
wol len</w>
mo del</w>
á ci
tig ung</w>
el ement
Am érica</w>
En vir
déclar ations</w>
ao ût</w>
rec ently</w>
ug ht</w>
ir se</w>
rédu ire</w>
g al</w>
B ul
Fam ili
lo ss</w>
fur ther
f abr
secon d
exp an
Isra ël</w>
st ated</w>
gen den</w>
low er</w>
ple inement</w>
custom ers</w>
M er
trav és</w>
W elt</w>
i hren</w>
bal ance</w>
ag os
aument ar</w>
destruc tion</w>
Chair man</w>
spe ak
ic king</w>
M at
ti r</w>
Justi ce</w>
reas ons</w>
benef its</w>
S ur
wel che</w>
pro pri
én ergie</w>
u el
bi ens</w>
un idad</w>
entr as</w>
suffici ent</w>
ne ver</w>
S P
redu cir</w>
am ento</w>
high -
V I</w>
ne w
t ations</w>
w ers</w>
av ir</w>
exclu si
pl ement
utilis er</w>
en ge</w>
sie he</w>
A ir
ser ies</w>
utiliz ación</w>
publ ished</w>
répon se</w>
acro ss</w>
Y u
b at
pén ale</w>
m embre</w>
Ver fü
rel atifs</w>
consult ation</w>
valu es</w>
su pr
ê tes</w>
af ir
pri or</w>
st ation</w>
k rati
present ado</w>
appli ed</w>
dis tric
A L</w>
fin es</w>
appli quer</w>
as ked</w>
si l
Pro je
différ entes</w>
approxim ately</w>
Deu tsch
fe br
sim ply</w>
ci- des
dou ble</w>
particip er</w>
cro issance</w>
régl ement
F ol
ges etzt</w>
agos to</w>
on d</w>
appro che</w>
em is
cover ed</w>
S am
at mosp
end as</w>
B ang
em ment</w>
str ic
enfo que</w>
applic able</w>
enc ed</w>
a just
k o</w>
C '</w>
R est
esfer a</w>
olu ción</w>
lo ad</w>
evalu ation</w>
us ement</w>
r ont</w>
reg ist
pen se</w>
acc ro
si bilities</w>
refugi ados</w>
inde ed</w>
B ro
dis orders</w>
W el
lo is</w>
t .</w>
g aben</w>
Hau p
zeig t</w>
document ation</w>
J e
com port
ill s</w>
per mis</w>
regul ation</w>
lan de</w>
han dic
R w
deleg aciones</w>
colabor ación</w>
meth od</w>
l d
Pro f
le yes</w>
T ro
B ra
dar f</w>
de fici
fa its</w>
ab and
or ías</w>
op tim
desp ite</w>
H igh</w>
integr ación</w>
ur gence</w>
ar ily</w>
P AR
att emp
P lat
consigui ente</w>
str ate
E m
ad min
e .
cumpli r</w>
progres os</w>
om a</w>
febr ero</w>
E R</w>
ge ts</w>
d ant</w>
to tal
Herr n</w>
cent ros</w>
v ille</w>
stat ut</w>
lic </w>
s alle</w>
S en
grap hi
rel aciones</w>
te ach
z ado</w>
el la</w>
per cu
de me
eas y</w>
han g</w>
ré duction</w>
ge führt</w>
success ful</w>
Perman ent</w>
envir on</w>
ati e</w>
ide al</w>
m el
in ser
Arzneimit tel</w>
al most</w>
ac com
tou ch
ari es</w>
établi r</w>
si da</w>
9 8</w>
op pos
kun ft</w>
® </w>
tra ite</w>
constitu e</w>
famili es</w>
a x</w>
CN. 4</w>
larg ement</w>
do ws</w>
et was</w>
un os</w>
equ ality</w>
em ento</w>
ne ar</w>
b loc
v an</w>
mo vi
hosp it
st udi
strength ening</w>
Mad am</w>
et t
2 .</w>
f all</w>
Stu di
lich keiten</w>
9 9</w>
Ex amen</w>
end ing</w>
st ly</w>
b ureau</w>
T i
gr áfic
diver si
s av
auth or</w>
C I</w>
exper t</w>
ac compli
at tribu
derni ères</w>
under standing</w>
L and</w>
parten aires</w>
o so</w>
contribu te</w>
intégr ation</w>
Trat ado</w>
expéri ence</w>
s agen</w>
e asi
Su d</w>
dic </w>
examin é</w>
europ e
régim en</w>
com ún</w>
program </w>
d le</w>
me -
as untos</w>
accep table</w>
Conven io</w>
F ra
tra ités</w>
gent l
table au</w>
hom bres</w>
í si
v acc
loo king</w>
par l
î t</w>
ev id
ali ties</w>
Govern ments</w>
famili a</w>
di agno
lab our</w>
p t</w>
deleg ations</w>
rel atif</w>
N G
pro pose</w>
Ter rit
Car ta</w>
élimin ation</w>
per miti
Unter stü
pun kt</w>
Europe o</w>
en cial</w>
ad just
refer red</w>
wh ose</w>
w ise</w>
segu imiento</w>
enn al</w>
C ari
communi ties</w>
6 6</w>
ex change</w>
experi encia</w>
isi on
ver i
s ens</w>
un de</w>
ro g
val eur</w>
í es</w>
peup les</w>
Pac te</w>
fon d</w>
post eri
relacion ados</w>
inform al</w>
secret ariat</w>
Dur ch
iz ation</w>
des arme</w>
v ali
pu edan</w>
all em</w>
ent lich</w>
om e
diver ses</w>
v ent
Gr up
bien es</w>
aw are</w>
négoci ations</w>
R è
lib ér
R i
lead ing</w>
citoy ens</w>
ind ígenas</w>
z ü
surveill ance</w>
en ough</w>
st ances</w>
ell er</w>
der iv
ér ie</w>
d ad
qu ar
ed ing</w>
l ist
TI ON
D el
for tun
further more</w>
diff ici
A gr
trat ados</w>
ein mal</w>
7 2</w>
trav el</w>
t ales</w>
IN G</w>
id s</w>
4 ,
auton om
he alth
fin ales</w>
t schaft</w>
me hr
aff en</w>
j an</w>
h andl
ré serv
in come</w>
es cal
dav ía</w>
con vient</w>
wich tig</w>
fac tors</w>
érie ure</w>
co û
A gency</w>
fonctionn aires</w>
reach ed</w>
EU R</w>
r ent</w>
mi x
gentl emen</w>
ou vel
deb emos</w>
ad mis
Ir an</w>
Fr agen</w>
at s
oug ht</w>
Amb ass
iv al
d or
comm ents</w>
st s</w>
h ér
HC R</w>
führ ung</w>
en registr
us ers</w>
so ins</w>
Cr im
fu era</w>
Institu te</w>
conduc ted</w>
val or</w>
la dies</w>
Có digo</w>
Austr alia</w>
univers al</w>
ser ía</w>
m ing</w>
cli ents</w>
raci s
conjun to</w>
pre uve</w>
pe u
an ni
cir c
pañ a</w>
pharm ac
A gre
gr é</w>
U kra
fuerz as</w>
mo tion</w>
desarrol l
Men schen
off ic
C ul
P C</w>
pu eda</w>
emplo ye
pa id</w>
G aza</w>
C er
Hau sh
con som
re fi
recor d</w>
R ol
le ich
indispens able</w>
produ it</w>
trä ge</w>
oeu vre</w>
stud ents</w>
gar es</w>
break fast</w>
proces ses</w>
recommend ation</w>
end ra</w>
Bel gi
Portu gal</w>
co her
u sted</w>
tr au
integr ated</w>
Man agement</w>
ent sprech
m ä
as su
indi genous</w>
S to
EU -
efic acia</w>
aim ed</w>
immedi ately</w>
democr atic</w>
or ie</w>
ab ier
Zusammen arbeit</w>
materi als</w>
Ro om</w>
garanti r</w>
em enting</w>
Bur undi</w>
cré é</w>
iz e</w>
ex ces
dific ult
compar ed</w>
D ie</w>
F ac
el ements</w>
pour raient</w>
H am
fe der
6 00</w>
ut z</w>
en or
Declar ation</w>
rá p
trans fer</w>
établi </w>
su s
Rel ator</w>
C -
beau ti
bu s</w>
mo du
writ ten</w>
Minis tre</w>
li qu
1 50</w>
mu tu
superi or</w>
t op</w>
guar ante
on ment</w>
ju ste</w>
C y
st an
vo ire</w>
région aux</w>
ti er
it ems</w>
an u
demo str
or mente</w>
esfer as</w>
c è
prior it
ver sch
M ag
cro ss
rég ime</w>
recomman de</w>
Rec om
scho ols</w>
mi entras</w>
Po lic
Lu x
S trat
U R
Con sul
cy cle</w>
v olu
dis pose</w>
ex es</w>
sup pli
pour quoi</w>
trans porte</w>
c elles</w>
consider able</w>
mar y</w>
Rus sian</w>
secret aría</w>
ag ing</w>
direc tives</w>
Unterstü tzung</w>
to davía</w>
ta ires</w>
p o</w>
civi li
l en
is ed</w>
suc cès</w>
présent er</w>
W es
ac ting</w>
et c.</w>
subst anti
continu er</w>
S of
Rah men</w>
bo ur
j am
schaf ten</w>
coun ter
regul ations</w>
mê mes</w>
dé cou
ff e</w>
sch ein
mal a
i an</w>
organiz ed</w>
comun idades</w>
. 00</w>
propos é</w>
ad res
id é
P op
refer encia</w>
bud géta
celu i</w>
territori o</w>
sou mis</w>
su is</w>
.. ..
fe el</w>
ref le
of rec
enf alls</w>
pr end</w>
fav oris
be deu
disposi ción</w>
al le
4. 4</w>
inform ed</w>
A P</w>
dang er
associ ation</w>
adop ter</w>
go ods</w>
marke ting</w>
s w
me an</w>
Indu stri
be hav
sex es</w>
physi cal</w>
re mar
princip aux</w>
confer ence</w>
in hi
im age</w>
democr acy</w>
man tener</w>
br u
anc o</w>
aliz ar</w>
z ing</w>
Gen eva</w>
gui delines</w>
P ap
in medi
Rw anda</w>
dre i</w>
h ard</w>
cin quante-
tan e
b estimm
liz ación</w>
sol l</w>
author ity</w>
men es</w>
Constitu ción</w>
mo un
dif íci
struc tures</w>
T o</w>
facilit ar</w>
i er</w>
di vers</w>
regi ones</w>
rap ide
AC .
m ation</w>
cid ental</w>
P aci
N ig
Inv esti
lo ssen</w>
per met</w>
si cht
ent fer
cr ise</w>
F all</w>
priv é</w>
enqu ête</w>
am s</w>
é l</w>
seg ur
ejerci cio</w>
actu almente</w>
M ed
F I
ad ora</w>
v it
eg a</w>
contribu ciones</w>
éx ito</w>
w ri
itä ten</w>
5 ,
Rech ts
extrem ely</w>
Cor te</w>
ur ch</w>
dr ug</w>
deci de</w>
sub se
tig keit</w>
cal end
In je
ti schen</w>
Sec tion</w>
ning ún</w>
introduc ed</w>
particip antes</w>
ro b
répon dre</w>
3 8
s ch</w>
e cimiento</w>
cambi os</w>
realiz ar</w>
pi ed</w>
souha it
ro w</w>
alternati ve</w>
S ci
www. un.org</w>
aur a</w>
bec om
si l</w>
negoci aciones</w>
trad u
im pres
el las</w>
T her
ne a</w>
un ded</w>
oper ación</w>
san it
usu ally</w>
C on</w>
enseñ anza</w>
comm ent
bro ad
cri tical</w>
clo sed</w>
2 12</w>
competi tion</w>
strateg ic</w>
offr e</w>
tu des</w>
indic ated</w>
pi de</w>
Económ ico</w>
gr und</w>
se urs</w>
P ar</w>
cu ales</w>
b s</w>
suiv ants</w>
aven ir</w>
t â
multilat eral</w>
Presid enta</w>
arbe iten</w>
ör der
activ idad</w>
orig ine</w>
iz o</w>
mon th</w>
reduc ed</w>
ß t</w>
teri al</w>
ren al</w>
neces arios</w>
Gesch äf
w r
author isation</w>
Te il</w>
pas ado</w>
plan es</w>
industri al</w>
circum stances</w>
protég er</w>
dé p
bo ard</w>
po or</w>
call s</w>
Feder al</w>
F OR</w>
S O
c elle</w>
6 8</w>
vi vi
UN </w>
at ég
subst ances</w>
vis e</w>
financi ère</w>
guer re</w>
traff icking</w>
declar aciones</w>
juridi ques</w>
best eht</w>
celebr ada</w>
gener ally</w>
C l
un as</w>
20 11</w>
oportun idad</w>
inner halb</w>
judici aire</w>
le gi
po ol</w>
determin ar</w>
á m
er o
s el</w>
actu elle</w>
it ec
Rest aur
ord nung</w>
F .
s ais
Co un
vé hic
dis minu
prohi bi
di r</w>
don ne</w>
s col
w ait</w>
comm un</w>
Ministr o</w>
T ag</w>
de t
g lu
cul ar</w>
ter ren
Qu es
comb at</w>
ur ed</w>
E ff
bro ught</w>
P I
v ital</w>
ur i
Sicher heit</w>
en vi
plac es</w>
In st
derni ère</w>
direc trices</w>
fall s</w>
con tam
ad ded</w>
A U
T ag
co ordonn
pour suivre</w>
dig n
begin ning</w>
trou ver</w>
pol lu
conclu siones</w>
requ ires</w>
lin ie</w>
guar an
identi fied</w>
aprob ó</w>
hab r
ex pul
rei cht</w>
par ole</w>
Pak istan</w>
C D</w>
9 6</w>
Er geb
fr ont</w>
supplé mentaires</w>
inst ance</w>
-- --
us tr
a king</w>
op tions</w>
Gen ève</w>
man ner</w>
trans l
atori o</w>
st o
ch im
vo irs</w>
ef s</w>
on ders</w>
est -
corrup tion</w>
einf ach</w>
as ser
polí ticos</w>
esti me</w>
h t
strate gies</w>
facilit er</w>
presu puest
W P.
me an
bien io</w>
pu es</w>
chang ements</w>
re habil
Al -
func tions</w>
essenti el</w>
exerci se</w>
cent ury</w>
b order</w>
et c</w>
T ema</w>
N eu
elec tions</w>
7 1</w>
public s</w>
D eb
k ers</w>
C NU
o ther
let tre</w>
ist ance</w>
caus ed</w>
t ons</w>
con dam
p ac
ch en
del itos</w>
mess age</w>
tr ue</w>
adopt adas</w>
al ing</w>
f ight</w>
o w
6 9</w>
Vic e-
promo ting</w>
exter nal</w>
Centr o</w>
tri eb
aj ou
gl au
ra y
in ge</w>
es -
An ti
po wer
tér min
pu </w>
friend ly</w>
Se ite</w>
M ac
su fr
iter ia</w>
tol er
fabr ic
ô te</w>
inici ativa</w>
con den
s am</w>
Isra eli
z ation</w>
te il</w>
peop les</w>
d ès</w>
divers os</w>
S ain
well -
oc asi
ch ac
ter mes</w>
CO M
4 0
sh op</w>
segun da</w>
tradi tion</w>
E ME
langu ages</w>
ag t</w>
200 2-
ament os</w>
effici ent</w>
Public </w>
st ability</w>
indem n
k ul
guer ra</w>
D UC
cre ation</w>
spéci alis
rap pel
pro fun
si ti
qua tri
f f</w>
trabaj adores</w>
Län der</w>
non- governmental</w>
wür de</w>
pro stitu
estr atég
I L
s mo
g yp
Yu goslav
all er
v al</w>
mi embro</w>
ex pend
si mul
7 4</w>
H on
est adís
sat z</w>
I hr</w>
C um
emp ê
Ac ción</w>
me ille
t ungs
inter ne</w>
v ér
Co sta</w>
opér ationn
under stand</w>
d am</w>
un to</w>
gar ant
im mun
compl ex</w>
natür lich</w>
UN F
centr o</w>
grad u
du s</w>
impl ementing</w>
tab il
en nen</w>
wich tig
ic k</w>
sever e</w>
situ ated</w>
electr ón
agricul tural</w>
present ar</w>
sen sibil
tionn el</w>
e ign
is on</w>
fa ir</w>
beauti ful</w>
cu los</w>
we i
Ar ab
mis iones</w>
établiss ements</w>
eur os</w>
9 7</w>
der en</w>
ä m
describ ed</w>
comb ination</w>
anteri or</w>
Tur qu
econom ía</w>
s pon
hay an</w>
defin ed</w>
Verfü gung</w>
zi eh
marke ts</w>
fi les</w>
pré vo
mechan ism</w>
A si
art .</w>
St adt</w>
chec k</w>
métho des</w>
B lu
difficul tés</w>
we iter</w>
improv ed</w>
lie gen</w>
I tali
conf ir
re pe
col le
partici par</w>
D ro
3 .</w>
Agre ement</w>
N et
comple ted</w>
mecanis mo</w>
gi a</w>
dis armament</w>
8 5</w>
For ce</w>
civ ils</w>
U L
la w
fu sion</w>
energ ía</w>
g abe</w>
asegur ar</w>
est amos</w>
min es</w>
avo id</w>
cam pa
deci si
t est
symptom s</w>
Rein o</w>
in nen</w>
tion ing</w>
h aus
n ight</w>
li on</w>
pur poses</w>
com isión</w>
ab hän
ug s</w>
claim s</w>
p ages</w>
car acter
cr iteria</w>
wri ting</w>
Au tor
gu ests</w>
Jap an</w>
il íci
ta x</w>
S E
má xim
Änder ungsan
fon do</w>
bes onders</w>
cli mati
g ed</w>
fol low</w>
cat astro
pen al</w>
B re
ide as</w>
flo or</w>
lik ely</w>
aqu í</w>
mb H</w>
es o</w>
D C</w>
car e
me tab
enti re</w>
fé dér
ke in</w>
l à</w>
deta iled</w>
anno un
bi ennal</w>
ín im
comp ét
an ual</w>
del ito</w>
financi ers</w>
de j
guaran tee</w>
li a</w>
ti eren</w>
conduc t</w>
quisi era</w>
in os</w>
M P</w>
ou th</w>
sigu en</w>
Commiss aire</w>
f ar
ätz e</w>
K en
as h</w>
inv ite</w>
No .</w>
we gen</w>
ing ungen</w>
Pro z
1 2.
con gr
ati n</w>
f en
al les</w>
V é
saf e</w>
lors qu'</w>
or as</w>
ob tener</w>
ré serve</w>
prohi b
in titul
fe atures</w>
con cl
le icht</w>
l er
sch rif
s cre
des plaz
é tés</w>
spre chen</w>
re for
occup ation</w>
terren o</w>
ag issant</w>
caus a</w>
se ar
comp lic
mar g
lig ne</w>
ill ing</w>
es cr
elec tron
influ ence</w>
m ínim
Ukra ine</w>
prote ger</w>
mo del
priv il
divers as</w>
do ing</w>
figur an</w>
institu tion</w>
a é
b ul
Roy au
com fortable</w>
H ab
a propi
ed ings</w>
mo ve</w>
conoci mientos</w>
ens uring</w>
st op</w>
statisti ques</w>
UN DP</w>
im médi
continu es</w>
inf anti
quatri ème</w>
particip ate</w>
r än
mä ß
Com o</w>
pre ce
cre d
déf ense</w>
conven tions</w>
relation ship</w>
cu ar
autor is
p ad
ex tent</w>
legisl ative</w>
multilat ér
si ze</w>
de gre
hu mains</w>
€ </w>
long -term</w>
ant ages</w>
pres ence</w>
estrategi as</w>
c lick</w>
direc tement</w>
le quel</w>
k an
ré guli
F OR
dé but</w>
8 00</w>
er hö
mo v
viel en</w>
prov ech
competen cia</w>
en fr
af irm
c anti
contr ô
re tur
én aire</w>
car ta</w>
Mil enio</w>
tas k</w>
a ñ
inten ded</w>
sti mul
ne y</w>
re tir
In tegr
Docu ment
A S</w>
T u
mor e
institu tional</w>
use ful</w>
ter a</w>
sor te</w>
pr ices</w>
dur ée</w>
f ying</w>
Com p
element os</w>
zu g</w>
u les</w>
Be ispi
elec ciones</w>
a id
perspec tive</w>
recommand ation</w>
félici te</w>
pro pre</w>
im porte</w>
allow s</w>
in sur
estab a</w>
i bilidad</w>
so ix
bec ame</w>
Zi el</w>
Z im
n or</w>
menti onn
no tw
te ile</w>
S we
te i
ta it</w>
kom mt</w>
ten emos</w>
Rec ord
comp tes</w>
tra in</w>
S ing
con v
le ave</w>
recomend ación</w>
we ight</w>
a .m.</w>
actu ally</w>
straté gies</w>
b ed</w>
ho li
contin g
peu t-
pér di
ampli a</w>
e fici
tu vo</w>
t un</w>
r un</w>
k lin
inter n
A I
ter rain</w>
accu e
L ab
h ag
buil d</w>
prac tical</w>
al co
Ar ab</w>
8 4</w>
T IC
Win dows</w>
inclu idos</w>
dispon ible</w>
than ks</w>
deta ils</w>
t ari
vig or</w>
ro ute</w>
pu is
Ab schn
isra el
G mbH</w>
li que</w>
er ont</w>
re produc
Présid ente</w>
tiv ity</w>
veill er</w>
se tting</w>
Pe op
go als</w>
Sal a</w>
é tro
tra ité</w>
lam ento</w>
g ing</w>
év olution</w>
accep t</w>
6 ,
more over</w>
oportun idades</w>
Pri v
soulig né</w>
I hrer</w>
import ants</w>
ing t</w>
pl ain
und ation</w>
el er
iss ances</w>
G ä
qu ée</w>
I rel
ad d</w>
id amente</w>
b ra
sho ws</w>
Probl em</w>
follow s</w>
high ly</w>
notw endi
s cope</w>
mécanis me</w>
de p
milit aires</w>
Vorsch lag</w>
en nium</w>
financi era</w>
al f
V .</w>
sein en</w>
T RA
facilit ate</w>
Flu g
peace keeping</w>
á tico</w>
m ad
m m</w>
M aur
ayud ar</w>
sur ro
autom ati
b ab
esp ace</w>
polí tico</w>
â ge</w>
l uss</w>
rais ed</w>
off ices</w>
D om
par ce</w>
9 -
M as
ab ar
st off
con stru
Be deu
qu és</w>
dem and</w>
ris ques</w>
r i</w>
prepar ación</w>
je der</w>
in o
mo vement</w>
com position</w>
au teurs</w>
sc ale</w>
re lie
Tim or</w>
A po
circ unst
trabaj os</w>
sup ply</w>
élec tron
scienti fic</w>
M id
pap er</w>
mein er</w>
viol aciones</w>
follow -up</w>
is o
deman des</w>
- -</w>
priv ado</w>
96 3-
ter stat
proces os</w>
por te
at ul
M ich
Crim inal</w>
con forme</w>
sec tores</w>
mé todos</w>
pos sibility</w>
sol o</w>
ig ual</w>
Ch ine</w>
de mos</w>
Señ or</w>
b ind
ab sor
k ä
expl or
ar di
compli ance</w>
UN O
su chen</w>
S ol
ord en
cl aim</w>
Austri a</w>
engag ements</w>
t ent
eth n
al c
chall enge</w>
è le</w>
fil les</w>
cep ti
fail ure</w>
ap porter</w>
S w
h äu
every thing</w>
an de</w>
ass ist</w>
sty le</w>
Parlam ents</w>
Tim or
super visión</w>
pur ch
k il
Administr ation</w>
er -
e i</w>
plé ni
volu me</w>
be hin
estabili dad</w>
gro ße</w>
entra î
gan da</w>
sum mary</w>
Situ ation</w>
L or
‘ </w>
rati fication</w>
oper ational</w>
J our
art an</w>
adress ée</w>
suiv ant</w>
zah l
re al
r ang
fran ç
isi e</w>
e k</w>
effectiv ely</w>
out come</w>
re views</w>
letz ten</w>
develop ments</w>
200 6-
car d</w>
1 1
enforc ement</w>
gr af
lin ks</w>
play ed</w>
Me dio</w>
Lös ung</w>
Mad ame</w>
nom br
cent age</w>
tem per
neces arias</w>
un il
E lec
cl ari
naci on
par li
dé plac
C re
S pain</w>
ab es</w>
Irel and</w>
atte indre</w>
M B
Bul g
trim on
amélior ation</w>
to -
e ad</w>
prest ar</w>
under taken</w>
so wohl</w>
sug ges
mo de
al iné
admin istered</w>
fr au
Bedeu tung</w>
dam age</w>
gleich zei
dirig ida</w>
élec tions</w>
tas a</w>
qu ick
re chte</w>
chap itre</w>
por té</w>
se is</w>
ren ov
fic inas</w>
ul ti
ge f
asoci ados</w>
nuclé aire</w>
aver age</w>
F if
ass er</w>
0 5</w>
tar get</w>
permet tant</w>
adolesc ents</w>
proce edings</w>
w at
ie der
obstac les</w>
con vic
ti ens</w>
tel l</w>
7 ,
Gener al
Sum mit</w>
E P</w>
P az</w>
constitu ye</w>
et ap
f ur</w>
allow ed</w>
f el
ic ana</w>
f le
M s</w>
r us
buil t</w>
ofici ales</w>
R ob
correspondi entes</w>
tom ar</w>
discuss ed</w>
ac u
suiv antes</w>
U K</w>
ab sten
ori ental</w>
adqu ar
sec teurs</w>
ci de</w>
W er
A cuer
improv ing</w>
D ef
R .
Regi onal</w>
A li
recogni zed</w>
iz a</w>
t esti
m in</w>
qu ed
ac us
Vo ir</w>
escu elas</w>
situ aciones</w>
Poli ti
ain ed</w>
dé s</w>
ab ra</w>
ch as</w>
si mpli
table ts</w>
de -
famili as</w>
200 4-
pursu ant</w>
so tros</w>
7 6</w>
hal t</w>
fu sión</w>
ak tu
list ed</w>
fais ant</w>
gir ls</w>
Rè glement</w>
inv ent
proto co
Lux emb
pri orities</w>
gen de</w>
7 8</w>
car ry</w>
be findet</w>
1 00
sec tors</w>
elabor ación</w>
satisfac ción</w>
déten tion</w>
G in
Protec tion</w>
K ir
A sie</w>
sear ch</w>
o urs</w>
B on
ang es
C al
gro s</w>
pes ar</w>
Län dern</w>
mö chten</w>
don antes</w>
g as
relativ o</w>
A P
US A</w>
económ icos</w>
Me e
reconoci miento</w>
e id
conf ig
pério di
comm une</w>
respons abil
intér êts</w>
9 1</w>
al ie</w>
comunic aciones</w>
pe ine</w>
W oh
prepar ation</w>
concep to</w>
av ir
gen heit</w>
lu x
sche du
entre prise</w>
O L
bure aux</w>
am ents</w>
cr í
part ner</w>
all ing</w>
juici o</w>
i on</w>
N amen</w>
ent ales</w>
y ond</w>
rele ase</w>
rapide ment</w>
N eben
W i
accom mod
F ahr
sig ht</w>
profes sion
eur o</w>
cor d</w>
anc ing</w>
march és</w>
sk in</w>
main tain</w>
gen u
Wes tern</w>
ebr a</w>
Mu j
go al</w>
adopt ée</w>
C. 3</w>
qu esti
amend ment</w>
isra éli
G ran
mainten ance</w>
sit o</w>
dra w</w>
incid ence</w>
raci al</w>
th -
ti ers</w>
tribun ales</w>
neg ative</w>
cho ice</w>
consolid ation</w>
ap e</w>
el s
li v
W est</w>
tri al</w>
n äch
tionn elle</w>
is me</w>
ren du</w>
si r
S ign
av ez</w>
B as
ev itar</w>
podr ían</w>
h ier
pay ment</w>
congr atul
fuer za</w>
reç u</w>
cur sos</w>
exam ine</w>
end or
al ist</w>
Glob al</w>
ah l
compl é
post -
trav ailleurs</w>
ni ñas</w>
außer dem</w>
mo tiv
o wn
Co venant</w>
C. 2</w>
ne igh
económ icas</w>
zur ück
Ad visory</w>
ed ades</w>
follow ed</w>
D en
recon n
rais ons</w>
incu agésimo</w>
effectiv eness</w>
deli ver
bor n</w>
G eb
refuge es</w>
Kol legen</w>
milit ares</w>
po ste</w>
K unden</w>
inter net</w>
pol y
dur ant</w>
Tra de</w>
Mög lichkeit</w>
pré sident</w>
cont ents</w>
lit er
financi er</w>
g ame</w>
í r
C ôte</w>
Ar tik
fonctionn ement</w>
paragraph s</w>
K at
separ ate</w>
ic o
tionn elles</w>
PRO DUC
ge bo
Kin der</w>
Institu t</w>
e z
is ol
vec es</w>
s é</w>
w issen</w>
Tur key</w>
Ze it
Com is
Bos nia</w>
dat ée</w>
beli ev
deb ates</w>
Haush al
instrum ento</w>
M ein
per pe
vol .</w>
ac te</w>
inst ead</w>
I .
con tient</w>
Mil li
consé quences</w>
comple tely</w>
Min u
four th</w>
pr ud
someti mes</w>
Span ish</w>
d ür
alcan zar</w>
certi fic
mun di
iter ran
Le one</w>
it ement</w>
200 8-
ul ly</w>
soci o
dav on</w>
Ph arm
S B
fortal ecer</w>
jec ted</w>
Re cht</w>
un ité</w>
ati es</w>
wä r
} </w>
Bür ger</w>
4 .</w>
t ag
install ation</w>
ban k</w>
caract ère</w>
Fr auen</w>
e an</w>
1 1.
fi el
Bar cel
usi a</w>
8 8</w>
handic ap
Administr ación</w>
o ficial</w>
Arz t</w>
treat y</w>
conse quences</w>
cl airement</w>
plani fication</w>
espaci o</w>
ful f
I .</w>
high est</w>
J er
á s</w>
awar eness</w>
ass emb
clo sely</w>
mi tir
at os</w>
UN ES
solici tud</w>
medic ines</w>
re ib
deli very</w>
ur ban
H al
bu ena</w>
gro ß
Par k</w>
ten ido</w>
li es</w>
P i
án dose</w>
i des</w>
a .
ten iendo</w>
F NU
an ie</w>
F é
esper a</w>
musi c</w>
F E
con ex
interes es</w>
meas ure</w>
especi aliz
matéri el</w>
h izo</w>
lo se</w>
gro ßen</w>
Israeli </w>
si bles</w>
oblig ación</w>
serv er</w>
o ficinas</w>
es ter
wä re</w>
me il
trou ve</w>
ven ue</w>
dis tance</w>
effici ency</w>
9 3</w>
L I
expres s</w>
sam en</w>
f ísi
comb ati
cri be</w>
Ré union</w>
estim mt</w>
teil ung</w>
druc k</w>
ob vi
k tur
er ve</w>
olog ías</w>
id ge</w>
Un ido</w>
S in
ré férence</w>
cre o</w>
i les</w>
F er
entfer nt</w>
be yond</w>
deber á</w>
Cum bre</w>
publi ques</w>
fil m</w>
- based</w>
port ée</w>
Pol í
sen se</w>
au er</w>
adquar ters</w>
sp ati
Ber lin</w>
région ale</w>
cho ose</w>
chang ed</w>
ex ce
ti sche</w>
Initi ative</w>
entr ée</w>
star ted</w>
Char ter</w>
no thing</w>
Th ema</w>
su cht</w>
pro long
Com ision
av anz
A G
e le</w>
gle ich</w>
ay ing</w>
l ess
proli fér
IN </w>
sci ence</w>
re t</w>
pa tri
al it
ad ing</w>
vul n
lo s
pf lich
P au
prior ité</w>
quier o</w>
A zer
her r
acqu it
eth ni
Can ad
pa i
Rus sie</w>
mu ß</w>
consist ent</w>
qu in
P ack
U .</w>
Do sis</w>
contribu er</w>
ell schaft</w>
ent ífic
every one</w>
un fortun
endi do</w>
gegen über</w>
Bel ar
po int
huma ines</w>
adop t</w>
ab use</w>
ac ter</w>
urg ent</w>
â g
coû ts</w>
prolifer ación</w>
D an
Civi l</w>
Democr ática</w>
is tics</w>
Berich terstat
milit aire</w>
pal abra</w>
cre dit</w>
j ob</w>
curr ence</w>
communau tés</w>
et a</w>
M é
R usia</w>
Lon don</w>
V II</w>
Entsch eid
tom a</w>
ad en</w>
dificult ades</w>
in ary</w>
Sta aten</w>
grow ing</w>
ob s</w>
Part ner
c ô
h ör
equip ped</w>
ast ern</w>
li ées</w>
m ed</w>
er st
ve y</w>
il legal</w>
com i
P lan
Eur o</w>
Pro ce
ri ch</w>
áfic o</w>
dire kt</w>
Un i</w>
2 5
distribu ción</w>
s end</w>
bilat eral</w>
Er k
recommend s</w>
ré vis
Herz eg
com eti
pho to
Gu in
peut- être</w>
Palestin e</w>
M usi
o tas</w>
có mo</w>
to ire</w>
pris on</w>
dé ploy
collec tion</w>
to ols</w>
it ación</w>
recon ci
présid ence</w>
di um</w>
ef ully</w>
pass é</w>
prolifér ation</w>
cu entas</w>
un it</w>
M O
Un a</w>
dér ation</w>
vuln ér
G al
approv al</w>
B riti
atta ch
cos as</w>
volon té</w>
sig nature</w>
Colom bia</w>
Est e</w>
present ó</w>
tel ev
adap tation</w>
politi schen</w>
c ali
k -
I voire</w>
no sotros</w>
contr act</w>
ex ige</w>
tu vi
Cor r
restric tions</w>
titu de</w>
CN. 9</w>
pro vo
qu er
adopt ado</w>
de ments</w>
af let</w>
religi ous</w>
S a
pou voirs</w>
Gin ebra</w>
don ateurs</w>
internation alen</w>
UNES CO</w>
re z</w>
we isen</w>
L et
n ations</w>
s age</w>
utiliz ar</w>
cip i
res t</w>
proporcion ar</w>
ach ten</w>
L ie
ci s
l ado</w>
certain ly</w>
funcion amiento</w>
res um
TION S</w>
ver g
C he
zus ätz
ger ich
ff t</w>
oc er</w>
détermin er</w>
inclu ida</w>
li ves</w>
e e</w>
den unci
Haup t
Vé ase</w>
verschied enen</w>
Derech o</w>
sor t</w>
at al</w>
fi e</w>
sec tori
w om
dis pu
Abschn itt</w>
unterstü tzen</w>
cu id
f eh
re tro
vide o</w>
seu l</w>
erforder lich</w>
b ou
Mill ennium</w>
mis sion
is tic</w>
R E</w>
partner ship</w>
En ergi
ér ic
estim ated</w>
il les</w>
8 7</w>
wor ld
ra dio</w>
bi an</w>
10 -
ren e
vari ety</w>
o ce</w>
Ho tels</w>
super vis
ofre ce</w>
commit ments</w>
Eur o
arr ê
exist en</w>
C lu
fis c
ec en</w>
Zusammen hang</w>
an ge</w>
0 2</w>
d entes</w>
enh ance</w>
bi g</w>
pre visto</w>
di s</w>
Terr oris
Royau me-
er reichen</w>
fic ally</w>
subst ance</w>
sub mit</w>
ac ord
Deutsch land</w>
en de
consé quent</w>
mem or
ch lor
arch itec
prueb a</w>
E ducation</w>
recu per
Chil dren</w>
b o</w>
Presid ency</w>
a provech
transpar ency</w>
paragraph es</w>
pr es</w>
AC NU
extr ê
adici onales</w>
Z entr
t ,</w>
mar ri
ent -
deten ción</w>
sub s
ph en
di vi
cons iste</w>
distin tos</w>
bi et</w>
ne ur
to ol</w>
sus cepti
Royaume- Uni</w>
Democr atic</w>
onn es</w>
vin cul
cam pag
Wir tschaf
Regi on</w>
o .</w>
pro spec
reas on
í o</w>
religi on</w>
com missions</w>
es col
or igen</w>
B raz
respe to</w>
medic ine</w>
k et</w>
inter pré
er ste</w>
dis puesto</w>
I T</w>
al leg
Briti sh</w>
H a
gen en</w>
Fra ktion</w>
determin e</w>
appe ar</w>
il t</w>
C ity</w>
UNF PA</w>
ent sche
Di enst
Ph ili
fr anc
territ ory</w>
main ly</w>
Probl eme</w>
th ous
apoy ar</w>
bas es</w>
milit ar</w>
í m
direc ción</w>
L im
reg lamento</w>
Div isión</w>
he pati
Pan el</w>
struc tur
év iter</w>
ri en</w>
présent ation</w>
determin ed</w>
N ationen</w>
F ar
Ital y</w>
vill age</w>
E limin
Mill énaire</w>
déclar é</w>
n ation</w>
ü c
Tra ité</w>
ber g</w>
alo g</w>
me ti
párraf os</w>
déta ill
em por
Acuer do</w>
di minu
possibil ités</w>
C op
señal ó</w>
tiv </w>
oper ating</w>
atte in
govern ments</w>
re ti
spéci fiques</w>
an der</w>
diffici le</w>
observ er</w>
circunst ancias</w>
con vi
My an
inv ited</w>
blic k</w>
0 3</w>
par all
lin k</w>
érie ures</w>
gre at
aff aire</w>
teri ores</w>
enti n</w>
recommand é</w>
al one</w>
in trav
sust an
Sicher heits
For sch
Mit tel
Mee ting</w>
associ ations</w>
Som alia</w>
re in
b it</w>
interven tions</w>
er st</w>
op ening</w>
pres erv
sug g
electron ic</w>
d û
én onc
E A
in jur
popul ar</w>
alc ance</w>
z y
ov ina</w>
tionn els</w>
mo de</w>
st abilité</w>
prévo it</w>
her vor
ten s</w>
fa ites</w>
im pul
anteri ores</w>
g lie
ich te</w>
fac tores</w>
En de</w>
instruc tions</w>
W al
ver se</w>
int ol
cl ass</w>
t adas</w>
Geschäf ts
do or</w>
enth ält</w>
Myan mar</w>
I M
educ ational</w>
M et
respec ta</w>
if fr
m age</w>
Kommiss ar</w>
car di
geb ra
é larg
iss en
es tiv
nuestr as</w>
ple as
v ente</w>
compu ter</w>
im migration</w>
aspec t</w>
refi ere</w>
h aps</w>
tip os</w>
Presid encia</w>
wh er
shop s</w>
R ou
it e
Som met</w>
realiz ado</w>
at em
improv ement</w>
plani ficación</w>
s érie</w>
St re
einz el
Herzeg ovina</w>
8 3</w>
8 6</w>
ein ge
tro p</w>
zi ehen</w>
souha ite</w>
Af gan
quick ly</w>
équi pe</w>
compens ation</w>
f fr
relativ os</w>
u dad</w>
occ ur</w>
industri e</w>
Timor -L
g obierno</w>
UN MI
exécu tif</w>
A ud
fi g</w>
aus sch
R ed</w>
ag ent</w>
En t
enti dades</w>
9 2</w>
In str
A v
b om
z usammen
pro pres</w>
behav i
rap ide</w>
vo ix</w>
loc aux</w>
R isi
av es</w>
ack no
Res earch</w>
FA O</w>
re actions</w>
so und</w>
cre ating</w>
pro mul
prév u</w>
im ages</w>
emer gency</w>
élabor er</w>
jam ais</w>
Timor-L este</w>
Indon esia</w>
prés ence</w>
ar abe</w>
famil les</w>
us age</w>
M ol
d ats</w>
val id
zi al
subst an
Al l</w>
ne ten</w>
contribu ción</w>
b anc
on going</w>
financi eras</w>
fa ite</w>
ser aient</w>
centr ale</w>
so ft</w>
ar ance</w>
Feder ation</w>
A M
K yo
thi op
J </w>
constitu ent</w>
T our
cour ts</w>
b zw
Fé dération</w>
s ac
mp tion</w>
se ur</w>
entr y</w>
re percu
se k
B au
cam e</w>
Studi en</w>
Leb ens
h im
Or ig
ell ec
tribun aux</w>
Feder ación</w>
alis m</w>
es encial</w>
auf ge
bzw .</w>
star ting</w>
dispon e</w>
per haps</w>
in vo
legi tim
k onn
2 50</w>
señ ora</w>
k ar
i ed</w>
Sch rit
cin qui
ACI ÓN</w>
m ur
consé quence</w>
per formed</w>
tr ac
ter cer</w>
be tri
Ac cord</w>
rése au</w>
mon o
au t
gr ado</w>
nation alen</w>
pén al</w>
us sel
bil ité</w>
We ise</w>
Char te</w>
crit ères</w>
ie f</w>
S T</w>
B et
des crip
ampli o</w>
criteri os</w>
prior ités</w>
us al
an -
Dar fur</w>
ch iffr
deman der</w>
Nor th</w>
stim mung</w>
Sch w
T A</w>
in n
Yugoslav ia</w>
numer ous</w>
h am
condi ción</w>
des cription</w>
requ ér
a proxim
bl an
cent er</w>
adopt ées</w>
si è
hi bi
gi ves</w>
ne ver
compromis os</w>
li és</w>
bil lion</w>
ob tained</w>
Beispi el</w>
E duc
tic ally</w>
identi fy</w>
collec tive</w>
abord ar</w>
continu ing</w>
Afgan istán</w>
major ité</w>
sat ell
anim al</w>
8 9</w>
infr a
conclu ded</w>
év entu
ent or
off ered</w>
kün f
Sup re
sch ö
es pr
elec tion</w>
a con
tu de</w>
des ea</w>
ni ch
E sp
spe ak</w>
pres encia</w>
govern ance</w>
R C</w>
col lè
che f</w>
administr atives</w>
exist entes</w>
ré clam
Al to</w>
d ort</w>
pregun ta</w>
cle an</w>
fom ento</w>
mati ères</w>
re fr
st ar</w>
con vin
Ch in
K re
indic ateurs</w>
R ück
l ate</w>
speci fically</w>
sp ä
sur tout</w>
correspondi ente</w>
perfec t</w>
M c
s ab
Sou s-
Institu to</w>
públic os</w>
inclu ir</w>
9 4</w>
sup ports</w>
im ag
ethn ic</w>
r un
a pr
t ests</w>
elec ted</w>
w ün
In tro
ti se</w>
Bang lad
ri d</w>
8 1</w>
agra de
cham bres</w>
réc emment</w>
le ben</w>
O U
prev é</w>
respon sibilities</w>
b ic
s ens
car r
G ren
pris on
present a</w>
au dit</w>
lat est</w>
K ap
accep ted</w>
difíci l</w>
interes ados</w>
con taining</w>
wi eder
humanit aria</w>
sé ances</w>
T en
an e</w>
U hr</w>
Artik el</w>
mar cha</w>
gu id
ay a</w>
Ques tions</w>
vie wed</w>
u sion</w>
zah l</w>
ans wer</w>
distric t</w>
Dis crimin
prueb as</w>
uni ón</w>
quel que</w>
uti le</w>
D U</w>
S S</w>
is ch
perío dos</w>
M us
arm ados</w>
ef e</w>
ment aire</w>
alg una</w>
reg lament
Argen tina</w>
k auf
ap pl
fondament aux</w>
n on
ei chen</w>
posi bles</w>
see k</w>
con tiene</w>
dri ve</w>
y ó</w>
compati ble</w>
ge ord
forc ed</w>
ish es</w>
gi ving</w>
Est a</w>
on ces</w>
lich es</w>
gr und
ir i
à -
equ ival
cinqui ème</w>
thre at</w>
pedi r</w>
en ce
wel comes</w>
{ </w>
b ers</w>
in suffis
par ece</w>
P T</w>
de z</w>
vir us</w>
begr ü
noti ce</w>
dat ab
ab led</w>
fem ale</w>
viol ación</w>
ci fr
8 2</w>
sup porting</w>
W ett
s aber</w>
198 9</w>
jurídic o</w>
peace ful</w>
Direc teur</w>
apart ado</w>
cep tion</w>
es sion</w>
Er fahr
mag istr
Rol le</w>
recib ido</w>
7 9</w>
indem ni
bien nium</w>
adver se</w>
po st</w>
dr in
oc </w>
P RE
offic ers</w>
aliné a</w>
asi s</w>
wirk lich</w>
w aste</w>
at a
h äl
responsabil ités</w>
S af
st able</w>
qui en</w>
Ag enda</w>
Pers onal</w>
E D</w>
Ku wait</w>
Tur k
reconstruc tion</w>
siti o</w>
pre limin
se tz
t ó</w>
ö h
é ti
pre val
er ungs
compr en
j obs</w>
E ig
am éric
per ten
c ob
faci l
eig enen</w>
terror istes</w>
ét n
é p
lead ers</w>
C P</w>
ag res
propor tion</w>
In su
gui de</w>
C Y
le aflet</w>
tic amente</w>
an ía</w>
. 2</w>
at oires</w>
a ded</w>
hor a</w>
o il</w>
ex ecu
cu s</w>
inclu ye</w>
m ass</w>
op ti
receiv ing</w>
achiev ing</w>
e f</w>
differ ences</w>
Ne ther
organ e</w>
indic adores</w>
difficul ties</w>
neces aria</w>
élev é</w>
correspon d
ent an</w>
do ses</w>
respec ter</w>
fam ous</w>
conci liation</w>
plen ary</w>
v ing
ho sti
vo tes</w>
control led</w>
cultur ales</w>
Gu atem
étrang ères</w>
de grad
dé es</w>
y m
Haushal ts
6 .</w>
habit ants</w>
inst aur
hat te</w>
llev ar</w>
financi ero</w>
O s</w>
straté gique</w>
könn te</w>
di tion</w>
Canad á</w>
z usam
other wise</w>
fu entes</w>
ro und</w>
graph ic</w>
un less</w>
be ach</w>
Kyo to</w>
C .1</w>
1 20</w>
2 3
e jec
bási cos</w>
dra it</w>
fif th</w>
compéten ces</w>
bi e</w>
reg ime</w>
m ac
Ch i
ous ing</w>
Rich t
cho is
inclu idas</w>
éco les</w>
affec t</w>
fr équ
accro ître</w>
vi al</w>
muestr a</w>
em erg
M S</w>
ess ed</w>
ih nen</w>
chap ter</w>
offici als</w>
Ges und
str ong
sk i</w>
ü ss
in sol
prior idades</w>
infec tion</w>
determin ación</w>
cam in
arm és</w>
inter ested</w>
Justi cia</w>
Liber ia</w>
Joh n</w>
hé sion</w>
er weise</w>
cross -
encourag er</w>
atu to</w>
i um</w>
s emble</w>
Q </w>
espr it</w>
appu yer</w>
ze igen</w>
fur n
Rom a</w>
av a</w>
Ther ap
se um</w>
opini ones</w>
he ure</w>
H aut</w>
ex hor
revis ed</w>
al idades</w>
ple ased</w>
wal k</w>
e hr
gest ed</w>
raz ón</w>
pa th
su ministr
elimin ación</w>
pen sion</w>
N on-
a e</w>
e- mail</w>
degre e</w>
Sch o
vulner able</w>
Neben wirkungen</w>
resour ce</w>
eb enfalls</w>
terror istas</w>
h ors</w>
abr as</w>
exp ir
ation ,</w>
de pen
contam in
di cha</w>
auf grund</w>
adv ice</w>
sch er</w>
H el
jou er</w>
Ven e
C L
or amiento</w>
prior idad</w>
caract ér
Ser bia</w>
ali en</w>
men tion</w>
S alu
Banglad esh</w>
defini tion</w>
permit e</w>
dé pos
Hil fe</w>
ONU DI</w>
éch elle</w>
beg an</w>
s .
ier ten</w>
N atur
i ben</w>
ier te</w>
é st
form al</w>
For o</w>
il os
w a
des sen</w>
seu le</w>
et wa</w>
bek annt</w>
col ec
technolo gie</w>
wor ked</w>
Zu kunft</w>
Pro yec
dig ital</w>
off en
lear ning</w>
en suite</w>
pré venir</w>
rec ti
indic ators</w>
investig ation</w>
ch ing</w>
lan z
statis tics</w>
cre di
beg in</w>
Au thor
ca si</w>
pers ist
Bür ger
conten ido</w>
Rev .1</w>
cul p
sur face</w>
t t</w>
0 6</w>
r are</w>
confér ences</w>
gel egt</w>
institu cional</w>
vigil ancia</w>
ed ores</w>
en dum</w>
escr ito</w>
k i</w>
an st
deten tion</w>
gr ade</w>
" .</w>
t ac
FNU AP</w>
br an
lut ter</w>
sug gested</w>
caus as</w>
stän d
an zu
wen iger</w>
Richt linie</w>
em in
ov </w>
au -
mit tel</w>
effic aces</w>
5 .</w>
th eless</w>
Ih rem</w>
má tico</w>
c raft</w>
abor d</w>
confi anza</w>
dro me</w>
ag entes</w>
par venir</w>
ver besser
pal abras</w>
respec tive</w>
zusam men</w>
év én
dé mar
spr ache</w>
suspen sion</w>
li e</w>
unfortun ately</w>
VI II</w>
mach ines</w>
For eign</w>
stat t</w>
Envir onment</w>
dé sign
n ice</w>
tel e
Leb an
P MA</w>
él ément</w>
f äh
sec ure</w>
de mi
utilis é</w>
autor ité</w>
Rus sia</w>
sch ie
categ oría</w>
S wit
br it
reci bi
Nether lands</w>
C enter</w>
vehic le</w>
C P
v ra
migr antes</w>
be tre
Con gres
dro gas</w>
médic o</w>
isl and</w>
fr ais</w>
étrang ers</w>
ur ban</w>
ing ton</w>
arm ente</w>
ho od</w>
v an
at ur</w>
tr áfico</w>
m ol
g ent</w>
str a
go la</w>
al p
palestini en</w>
hu bi
divers ity</w>
innov ation</w>
dür fen</w>
no té</w>
behin d</w>
I V
Program m</w>
confi ance</w>
A .
Pa í
selec ted</w>
Wirtschaf ts
det all
4. 2</w>
in spir
never theless</w>
s qu
li mit</w>
t nis</w>
hist ori
N T</w>
G ef
orig in</w>
qu and</w>
les quelles</w>
ré d
é change</w>
metab ol
li en</w>
soci étés</w>
tex tes</w>
ser án</w>
peque ñas</w>
Gr ün
contin ú
mo tivos</w>
int ellec
r y
pro per</w>
Re gel
´ </w>
qui enes</w>
y ed</w>
com ed</w>
E. U
multilat er
mer k
Web site</w>
EC E</w>
fortal ecimiento</w>
Ken ya</w>
b ene</w>
spéci ales</w>
employe es</w>
se ems</w>
direc tamente</w>
órgan o</w>
Sof tware</w>
juris dic
he it
kom men
speci es</w>
man que</w>
Z </w>
confer encias</w>
D em
publi é</w>
E E.U
conven i
2006- 2007</w>
eng age</w>
observ ation</w>
ouver ture</w>
Strat eg
m acro
atten d</w>
T un
We g</w>
remerci er</w>
déb ats</w>
correc t</w>
comerci ales</w>
An t
aci onales</w>
i al</w>
Wett bewer
Mex ico</w>
un its</w>
is es</w>
om as</w>
bar en</w>
pers ön
independi ente</w>
E mb
post s</w>
mob ile</w>
distin gu
o ficina</w>
fr agen</w>
ejec ut
No te</w>
uti li
bere ich</w>
signific antly</w>
innov ative</w>
olo gique</w>
B .
isti ques</w>
visi ons</w>
vou l
L iste</w>
Te il
ig ung</w>
w are</w>
ap pointed</w>
actu ales</w>
as unto</w>
preci so</w>
ap er
recib ir</w>
D aten
pro cè
Con tro
Jap ón</w>
cur red</w>
men ées</w>
constitu tion</w>
po demos</w>
Am end
sex </w>
s se</w>
Verein ten</w>
high ligh
dra wn</w>
avail ability</w>
ann ten</w>
tw ent
if en</w>
is ing</w>
us ses</w>
mo tivo</w>
z in
humanit aires</w>
sam m
e pi
princip almente</w>
consider ar</w>
An gola</w>
aller dings</w>
chang ement</w>
E t
be iden</w>
9 ,
tr am
easi ly</w>
ré parti
larg est</w>
v u</w>
de d
7 00</w>
Produ kte</w>
memb ership</w>
comun it
territ oires</w>
unser em</w>
tra fic</w>
S il
ti m</w>
ge wi
terror ist</w>
priv ée</w>
enn a</w>
ari ats</w>
W h
Guatem ala</w>
represent ed</w>
contribu ir</w>
E C</w>
materi ales</w>
Ch ile</w>
z el
res tor
profesi onal</w>
install ations</w>
é crit</w>
ator ia</w>
escal a</w>
ob en</w>
EE.U U.</w>
él è
M icro
pl ant</w>
inclu ido</w>
Mid dle</w>
en car
as um
mon itor</w>
forder ungen</w>
ish ment</w>
com miss
v ía</w>
ob ach
I T
fe lici
invol ving</w>
glob ale</w>
formul ar</w>
Barcel ona</w>
dr ugs</w>
. 000</w>
favor able</w>
substan tive</w>
F or</w>
at o
ad oras</w>
he ard</w>
marg in
deber án</w>
P H
canc er</w>
J ahr
cont empor
tendr á</w>
DE L</w>
gle i
annu el</w>
inter cambio</w>
Co operación</w>
ag o
ro man
efec tu
com man
min e</w>
gr ün
rank ungen</w>
M esa</w>
For m</w>
pen a</w>
dang er</w>
é ste</w>
par k</w>
au té</w>
pro secu
Su per
ma si
Inform ación</w>
gu te</w>
démocr atie</w>
tu s</w>
si eurs</w>
ou vr
è tes</w>
reg ret
tiv en</w>
Re gl
prop os</w>
t ten</w>
modi fications</w>
r ise</w>
wor t</w>
éri eurs</w>
excep tion</w>
Person en</w>
moder n
discus s</w>
in cen
compe t
versi dad</w>
Fran cia</w>
ch ung</w>
adqu ir
ci entífic
ä t</w>
mu erte</w>
al ,</w>
conflic ts</w>
if f</w>
bo x</w>
Tab le
Swit zer
z war</w>
evalu ar</w>
re alidad</w>
famili ar</w>
serv ir</w>
Consul tiva</w>
k ol
ad vis
pro fon
respon d</w>
Re view</w>
á ticos</w>
S S
enti al</w>
défini tion</w>
st op
B anco</w>
qu incuagésimo</w>
chac un</w>
Chil d</w>
sé par
v ar
f und</w>
é cr
er ie</w>
e g</w>
S ur</w>
hosp ital</w>
es day</w>
Is lam
approuv é</w>
m ale</w>
CE D</w>
ation .</w>
os en</w>
ben ö
com ités</w>
particip é</w>
Ban que</w>
ü l
al ta</w>
establish ing</w>
T y
te es</w>
F -
dig keit</w>
ück sich
eb o</w>
gebra cht</w>
mo i</w>
I P
ac comp
c abe</w>
Regi erung</w>
ploy ment</w>
S tra
ass ung</w>
con fron
pharmac eu
Gr und</w>
t tes</w>
T ex
est er</w>
men or</w>
com enz
Peop le</w>
U .
a dic
wel comed</w>
hes ión</w>
0 7</w>
sk ills</w>
serv ed</w>
k or
observ a</w>
Al ban
volunt ary</w>
wh om</w>
Nor d</w>
sec tions</w>
lä ge</w>
Entwickl ungs
tane ous</w>
Servici o</w>
pl ant
accommod ation</w>
tir er</w>
conoci miento</w>
f li
as o</w>
transi ción</w>
jurídic a</w>
cho ix</w>
spe ed</w>
E ins
inter fer
prof it</w>
ä d
Do k
ativ en</w>
cl ín
men er</w>
en camin
e th</w>
R at
indic ate</w>
l um
establec e</w>
acces sion</w>
f are</w>
fiel ds</w>
sicht lich</w>
gar an
Fr üh
su ites</w>
tion ally</w>
fau drait</w>
ér o</w>
natur ales</w>
immedi ate</w>
independ encia</w>
p tion</w>
gu est</w>
explo tación</w>
Salu d</w>
ci-des sus</w>
mir as</w>
intrav en
Ver bind
Muj er</w>
T el
fre qu
I bid</w>
r as
vo ting</w>
reg res
form at</w>
ho l</w>
migr ación</w>
aj a</w>
au tant</w>
I ls</w>
config ur
dé plo
ba thro
concentr ation</w>
lin ked</w>
S ri</w>
Sch ul
fai ble</w>
conclu sión</w>
Polic y</w>
D V
im pu
lu gares</w>
dev ait</w>
amen aza</w>
t em</w>
po bres</w>
Mit tel</w>
wer t</w>
ren contr
consi d
préoccup ation</w>
al go</w>
p hr
z immer</w>
Fac ult
tecn ologías</w>
teri or</w>
al ent
con cr
p ê
radi o
í d</w>
men ace</w>
L t
rel ax
recor ded</w>
mer n</w>
e tic</w>
al istes</w>
considé rée</w>
Mon t
u ch</w>
les quels</w>
for d</w>
transfer t</w>
M I</w>
esp ère</w>
multi ple</w>
Geor gia</w>
categ ory</w>
con ces
teil en</w>
b au</w>
enf in</w>
reg istered</w>
europä ische</w>
pre cau
Servici os</w>
Á r
i- ci</w>
bu ff
catég orie</w>
génér alement</w>
dé pend
an dia</w>
propi o</w>
ac ted</w>
D ep
ex ist</w>
gesch lossen</w>
determin ation</w>
h az
identi fication</w>
propi edad</w>
2 4
ac cr
ß en
évalu er</w>
lleg ar</w>
adv antage</w>
b ah
di am
as pir
j ähr
co ût</w>
D ate
fin ance</w>
construc ción</w>
pen al
fi ée</w>
D r.</w>
inter nos</w>
R ome</w>
ér ation</w>
appe al</w>
vol l</w>
organis é</w>
P ra
lear n</w>
pas o</w>
mög lich
lie fer
Politi k</w>
do ssi
zeich nung</w>
Can adi
cour ses</w>
afric aine</w>
L atin</w>
speak ers</w>
exper tise</w>
Switzer land</w>
ac tors</w>
unter schied
voll ständi
All em
weiter hin</w>
he av
s per
e igh
resul ting</w>
ich t
indic a</w>
lan g</w>
resol ver</w>
judici ales</w>
mi les</w>
san ciones</w>
rev isión</w>
ati vely</w>
ma je
adecu ada</w>
N ic
val ores</w>
CNU CED</w>
Q U
feder al</w>
Jap on</w>
et ary</w>
par king</w>
e ar</w>
asoci ación</w>
pad res</w>
pu isse</w>
reco very</w>
J ord
si cher</w>
an moins</w>
ni es</w>
particuli ère</w>
Ejecu tiva</w>
registr ation</w>
pl ut
g ilt</w>
prest ación</w>
ci udad</w>
li ens</w>
op ened</w>
prév ues</w>
increas ingly</w>
públic as</w>
Res olution</w>
ear lier</w>
affir me</w>
sal v
C at
Ac tiv
I f</w>
trat ado</w>
ex ac
D .</w>
ok ing
be dro
part ments</w>
Vene zu
ré sid
protec ted</w>
inter action</w>
str ess</w>
im parti
médi as</w>
est é</w>
Mein ung</w>
réalis er</w>
n un
hel p
hin aus</w>
fr age</w>
acon te
g ado</w>
K an
ho st
ne te</w>
st ain
o tor
ec es</w>
com ent
F äl
Ann exe</w>
ej er
y r
lead ership</w>
raz ones</w>
b as</w>
H aus</w>
er ungen</w>
der zeit</w>
OM C</w>
ho tels</w>
canti dad</w>
concre tas</w>
K ur
Ann ex</w>
gen s</w>
sam keit</w>
Al em
Chr isti
palestin o</w>
NG Os</w>
consum ers</w>
wh ite</w>
lé gi
J ur
ré us
des as
ke ts</w>
clu b</w>
ill er</w>
def ensa</w>
Sud án</w>
ör per
modi fic
UN EP</w>
K az
8 ,
K ü
Nig eria</w>
gro unds</w>
Han del
uni versit
reg ards</w>
i é</w>
adres se</w>
ven u</w>
ch ance</w>
st ore</w>
K li
ge währ
bus in
Is l
estab an</w>
f illed</w>
itä ts
gr ands</w>
dis tr
amen az
d ,</w>
tro uv
A s</w>
M ONU
M ob
appu y
re présente</w>
um -
depend ent</w>
exten ded</w>
An aly
custom er</w>
gi ble</w>
ho st</w>
pag o</w>
cri ti
consen so</w>
inclu sion</w>
sou ffr
Ver brau
vehic les</w>
Präsid entin</w>
CY P
A soci
F uer
M éx
it ors</w>
se ven</w>
200 0-
S im
encourag ed</w>
Re unión</w>
atmosp here</w>
J .</w>
ge geben</w>
dirig e
aproxim adamente</w>
consi gn
compon ents</w>
sor ti
palestin os</w>
L í
réalis és</w>
ris ks</w>
ref er</w>
ag ency</w>
EME A</w>
Pro cur
acces sible</w>
re ly</w>
mor al</w>
inter diction</w>
Se iten</w>
se as
program s</w>
re ich</w>
ille z</w>
ap point
m ass
trou ver
selec tion</w>
h under
ü ck</w>
E L
fronti ères</w>
gen au</w>
alis ts</w>
experi enced</w>
verwen det</w>
Restaur ant</w>
O m
h um
tiv ité</w>
pu di
budgéta ires</w>
bro ad</w>
autor idad</w>
re ve
remain ed</w>
orient ation</w>
peti t</w>
si xième</w>
p si
trimon io</w>
ke hr</w>
territori os</w>
ge ben
1 º</w>
li eren</w>
empres a</w>
dar an</w>
cipi ents</w>
distin tas</w>
pass er</w>
back ground</w>
z z
ist er</w>
pi dió</w>
C a
i on
pauv res</w>
spe aking</w>
ch ar</w>
hol ders</w>
c á
ne ed
En erg
di abe
op position</w>
sufici ente</w>
con tain</w>
afir ma</w>
investiss ement</w>
A G</w>
chan dis
Un it</w>
bri ef
je de</w>
at ement</w>
Cham ber</w>
Ver antwor
emb l
Dienst leist
CC C</w>
rec alling</w>
E T
in er</w>
previ ously</w>
m end
ten gan</w>
re cht</w>
ag on
orient ación</w>
v uel
concre te</w>
aliment aire</w>
de aling</w>
ac cur
Pre par
Entsch ließ
ar lo</w>
m -
perspec tiva</w>
all gem
arch iv
pou vez</w>
Z w
E X
may ores</w>
è ces</w>
assur ance</w>
inver sión</w>
cap ié</w>
abili dades</w>
amb os</w>
hi jos</w>
r é</w>
f an
ein igen</w>
exten sive</w>
hin capié</w>
ber ich
instal aciones</w>
recogni tion</w>
restaur ants</w>
Am bi
flex ible</w>
l ati
r ace</w>
unil at
ap préci
oking .com</w>
focu sed</w>
brau chen</w>
B ru
anc ement</w>
cir const
public ations</w>
th ought</w>
sub ray
élimin er</w>
pre venir</w>
trait ements</w>
fis cal</w>
cer ca</w>
zu stellen</w>
ac teurs</w>
Me hr
Paí ses</w>
E L</w>
a er
ban o</w>
world wide</w>
des af
b ai
rele ased</w>
P ay
men s
déf is</w>
dimen sion</w>
Se con
reduc ing</w>
h ici
tri als</w>
wen det</w>
tei lig
lin gu
dese o</w>
y outh</w>
tr itt</w>
charg es</w>
tra dici
Sch utz</w>
Unter neh
je den</w>
è rent</w>
ag ers</w>
isl am
déploy és</w>
M AR
encuentr a</w>
parten ariat</w>
jo in</w>
L eg
deb ía</w>
us os</w>
dra f
P AC
diff usion</w>
y an</w>
L ES</w>
gleichzei tig</w>
fac teurs</w>
O C
he ur
Mad rid</w>
ag ir</w>
im possible</w>
ún icamente</w>
clar o</w>
sh ared</w>
h is
sig n</w>
Le ist
kon trol
señal ar</w>
tiv idad</w>
cap ítulo</w>
cap able</w>
Méx ico</w>
I S</w>
ma cht</w>
Allem agne</w>
un anim
plat z</w>
ah r</w>
fif ty-
y endo</w>
k einen</w>
U ganda</w>
implic ations</w>
ch ers</w>
2004- 2005</w>
S ü
cell s</w>
rece v
ie le</w>
res pal
D A</w>
sé lec
198 8</w>
A T</w>
indépend ance</w>
envir onn
ob ern
for um</w>
im mt</w>
st ein</w>
sch wer
amen dements</w>
Spi el
ad voc
rec ur
territori al</w>
ver sión</w>
pregn ancy</w>
efic aces</w>
rec urr
gi g</w>
on y</w>
présent és</w>
Tou tefois</w>
is s</w>
he chos</w>
s par
S ar
min eurs</w>
Secret ary</w>
cu lo</w>
wen den</w>
ac om
M P
fi és</w>
a quel
t areas</w>
modi fication</w>
sub ven
schaf ts
plac er</w>
cost os</w>
Ab geord
entor no</w>
Arbe it
autor iz
u la</w>
ís ticas</w>
Sud an</w>
agr í
la i</w>
TI V
St unden</w>
≥ </w>
sub cu
tr ust</w>
proces sing</w>
H or
E mpf
An gebo
y n
v id
P la
b s
b are</w>
P V
at z</w>
democr acia</w>
gran ted</w>
expend iture</w>
def ence</w>
registr o</w>
hou se
le- ci</w>
catastro ph
al .</w>
ko sten
pres ión</w>
ver bun
ini cial</w>
Es paña</w>
utilis és</w>
cu otas</w>
di en
volunt ad</w>
min as</w>
conse ils</w>
pun tos</w>
adv ance</w>
figur ant</w>
val eurs</w>
cl are</w>
últim a</w>
investig aciones</w>
S ti
Ori ent</w>
sub -
asoci aciones</w>
en th</w>
categ ories</w>
fü h
ries gos</w>
di fusión</w>
graphi que</w>
invol vement</w>
Best and
celebr ó</w>
Fir st</w>
v as</w>
laun ched</w>
Bo li
Ch ap
D av
13 73</w>
ordin aire</w>
mor t</w>
sub jects</w>
zü glich</w>
m én
att acks</w>
lan ge</w>
fin e</w>
h il
observ ó</w>
0 8</w>
meille ure</w>
ti ert</w>
P at
è de</w>
fi j
iz </w>
elabor ar</w>
sign al
O s
Com me</w>
R en
prop ia</w>
ré un
independ ence</w>
próxim o</w>
in form</w>
hac er
end encia</w>
bili dades</w>
I U</w>
nutri tion</w>
ign or
du ty</w>
prepar e</w>
investiss ements</w>
celu i-ci</w>
coun t</w>
del incu
strong ly</w>
is c
pac ífic
ro ul
ger ade</w>
k ung</w>
deci des</w>
tox ici
per mitir
re ality</w>
sho wed</w>
ob tain</w>
le b
offici els</w>
B ar</w>
reserv a</w>
verb al</w>
ou ti
divers ité</w>
cli ent</w>
0 4</w>
zeich net</w>
S R.
aj es</w>
ti ous</w>
mode lo</w>
re par
Pro duc
transpar ent</w>
adul ts</w>
franç ais</w>
in fer
appreci ation</w>
prop ó
trabaj ar</w>
Contro l</w>
Venezu ela</w>
ad équ
Sy ri
man n</w>
reco gn
fü n
er ti
Lan ka</w>
obst á
ér é</w>
destruc ción</w>
ur b
septi ème</w>
Investi g
électron ique</w>
acc ent</w>
politi sche</w>
jur i
merc ados</w>
comb at
solidar ity</w>
infanti l</w>
accu s
clar amente</w>
actu alidad</w>
su sci
Pun kt</w>
le isten</w>
conv ain
e. g.</w>
K enn
inver siones</w>
Am ster
ho ch
tempor ary</w>
ac compl
progres o</w>
ent onces</w>
plas ma</w>
qu alit
Comision ado</w>
conf idence</w>
syst émati
ne ben</w>
N ä
deb t</w>
mor ning</w>
cam p
. "</w>
etap a</w>
ch ann
spo ke</w>
realiz ados</w>
Lis bon</w>
plann ed</w>
supr a</w>
co opér
go es</w>
anti cip
ci mientos</w>
B lut
profesi onales</w>
fom entar</w>
Po st
est re
zun eh
im os</w>
st ro
r ing
kt ur</w>
indi que</w>
s ports</w>
elimin ar</w>
deliver ed</w>
génér ales</w>
h our</w>
t ada</w>
con ç
unterstü tzt</w>
uer to</w>
hu ge</w>
Palestin a</w>
á ticas</w>
plic ation</w>
M ari
de cen
ún ico</w>
inter médi
V ide
sub mission</w>
ológ ica</w>
saf e
cou ver
dise ases</w>
pharm aci
si onal</w>
th in
betri fft</w>
guid ance</w>
su spec
re un
min ute</w>
mo str
gouvern ance</w>
facult atif</w>
ú </w>
r er</w>
pléni ère</w>
k us
häu fig</w>
asse ts</w>
reci entemente</w>
st abil
Vi enna</w>
dro gues</w>
ci ties</w>
sam ente</w>
W il
Qu alität</w>
en er</w>
sup érieur</w>
Pro mo
holi day</w>
B or
actu el</w>
den ces</w>
S P</w>
A B
multi -
señal a</w>
cu pied</w>
Ori ente</w>
transpar ence</w>
cho se</w>
differ ence</w>
h ousing</w>
contr ain
2002- 2003</w>
dis capacidad</w>
consu mer</w>
l eng
ten ga</w>
bilat ér
olo giques</w>
int el
Proyec to</w>
con vo
amen dement</w>
sol len</w>
inform ó</w>
D C
fre und
emis sions</w>
conna issances</w>
é missions</w>
n ar
G el
ges agt</w>
gem acht</w>
compon ent</w>
be ein
accompli s</w>
Hau t-
speci alized</w>
s port</w>
s le
enferme dad</w>
introduc ción</w>
li ance</w>
vi ème</w>
w ill
cultur a</w>
H and
gem ä
activ ely</w>
5 .1</w>
ir án</w>
dé lai</w>
eti n</w>
Ge gen
O ber
formul ation</w>
he i
habit u
in dem</w>
nav ig
compéten ce</w>
Fo undation</w>
f it
détermin ation</w>
ám ica</w>
b ation</w>
sex e</w>
arbe itet</w>
mit tl
H ung
co hér
ag ues</w>
infra estructura</w>
M IS
Bo oking.com</w>
2008- 2009</w>
Wo chen</w>
T N
autor isation</w>
onn aire</w>
ex istencia</w>
wee k
cu is
cultur es</w>
cel l</w>
Bus iness</w>
visi ble</w>
read ing</w>
enferme dades</w>
c les</w>
cuar to</w>
Mit glie
étran ger</w>
pollu tion</w>
développ er</w>
deci dió</w>
plut ôt</w>
const ante</w>
we is</w>
crip t</w>
i .
sol che</w>
N A
re present</w>
frecu encia</w>
E bene</w>
cl ass
ac ce
Si ège</w>
regi on
j ing</w>
V is
Rel aciones</w>
langu es</w>
véhic ules</w>
S A</w>
four ni</w>
vir tu
An exo</w>
enci ales</w>
anim als</w>
Emb aj
gly ca
combati r</w>
der ed</w>
con tenu</w>
am er
e ve</w>
lo st</w>
plen a</w>
ren d</w>
perio dic</w>
P L</w>
en si
af ter
ass ure</w>
alisi erung</w>
second ary</w>
Sch we
Cam bo
C li
num bers</w>
ent ed</w>
ci té</w>
s ales</w>
ti di
S ex
Alem ania</w>
Fri ed
ar -
por cent
ases oramiento</w>
alis ed</w>
Ab stimmung</w>
construc tive</w>
difer encias</w>
realiz ación</w>
trans ports</w>
histor ical</w>
Ho st
tor tura</w>
reflec t</w>
S or
be i
insur ance</w>
b all</w>
pon ente</w>
enqu êtes</w>
ar mon
insu fici
v as
natur elles</w>
neu tr
r ar
perman entes</w>
è tres</w>
adolesc entes</w>
mi tig
g el</w>
pil o
sch ü
Aus sprache</w>
reserv as</w>
us s
exten sion</w>
bu en
lä s
minor ités</w>
tt on</w>
ten ía</w>
aim s</w>
tro p
contrat ación</w>
4. 3</w>
ab ri
öffent lichen</w>
si erung</w>
ier on</w>
inspec tion</w>
N ai
ü hr
enmi enda</w>
teil t</w>
b ly</w>
gr ati
tsch rit
li ación</w>
Ein zel
sexu elle</w>
f ishing</w>
R ica</w>
bud s
sist em
pre dic
pr or
appe ars</w>
Ar ch
ol der</w>
me j
conna ître</w>
Pro jet</w>
compro mise</w>
mi lieu</w>
re forms</w>
r ing</w>
Regl amento</w>
benefici os</w>
trat o</w>
Dur ante</w>
Grup pe</w>
préoccup ations</w>
r ag
er cial</w>
con currence</w>
adici onal</w>
remerci e</w>
ch efs</w>
iti ème</w>
geb ung</w>
nam es</w>
St ad
ing ,</w>
je we
tor ia</w>
neu vième</w>
le ge</w>
Milli onen</w>
ouver te</w>
p ass</w>
ver ein
prolifer ation</w>
enmi endas</w>
proto col
loc ations</w>
ze it
Do ha</w>
fac ing</w>
F rei
UN D</w>
om in
Com erci
trans actions</w>
trans port
i tion</w>
err as</w>
S E</w>
zo gen</w>
sou tenir</w>
sé ment</w>
acqu isi
li eux</w>
Leb en</w>
quier a</w>
car efully</w>
mas sive</w>
inf l
gubernament al</w>
F aci
em pr
ér ance</w>
contr at</w>
pregun tas</w>
Braz il</w>
conse il</w>
é sta</w>
sem aine</w>
bar ri
tiv amente</w>
Mo y
L OS</w>
í os</w>
bar keit</w>
pré al
e o</w>
Con sult
we der</w>
six th</w>
el ement</w>
En tre</w>
gé o
un ding</w>
art et</w>
elec toral</w>
organis ée</w>
Comis ario</w>
OI T</w>
a éri
sex agésimo</w>
a partment</w>
tas ks</w>
k u
qu ím
av ances</w>
ih n</w>
requis itos</w>
y thro
Clu b</w>
n immt</w>
In spec
hr es</w>
graph y</w>
ci ales</w>
ti ennent</w>
pro z
ist os</w>
therap eu
P úblic
se ven
dan ken</w>
prim arily</w>
st ech
ju ge</w>
trat ar</w>
por teurs</w>
particul armente</w>
peli gro</w>
Organ is
cel le-ci</w>
TE R
m 2</w>
parten ariats</w>
sh e
f ang</w>
sum mer</w>
combin ed</w>
reg el
ne ws</w>
donn ée</w>
tar ge
est u
th é
garan ties</w>
hal te</w>
contin ent</w>
mej ores</w>
gen e</w>
ex plan
notwendi g</w>
t antes</w>
compl ète</w>
áci to</w>
schn ell</w>
propri été</w>
compr end</w>
o dy</w>
po wers</w>
constitu yen</w>
dar in</w>
bes artan</w>
Bei jing</w>
er ne
res puestas</w>
C. 5</w>
off ering</w>
T om
repres ents</w>
t él
du da</w>
tra iter</w>
L egal</w>
men u
exam ples</w>
gr enz
par lament
Te am</w>
segur o</w>
re cht
G R
f low</w>
con dem
addres sing</w>
â ti
a ther</w>
sensibil isation</w>
b ol
secon dly</w>
jo int
ph ar
ess er</w>
br ing
help ful</w>
ill ustr
sem ana</w>
st adt</w>
mög lichen</w>
Po si
sett lement</w>
or ador</w>
re y</w>
Demo krati
present ation</w>
sol amente</w>
thous ands</w>
concentr ations</w>
th ème</w>
ven us</w>
Lin ux</w>
solici tudes</w>
intitul é</w>
Um wel
bo tt
extr a</w>
mundi ales</w>
ein zu
esti ones</w>
alf a</w>
Fin anci
nu tzen</w>
ament ary</w>
trans mission</w>
D ank</w>
4. 5</w>
sion en</w>
travaill er</w>
wich tige</w>
be an</w>
er reicht</w>
he ad
bene pl
benepl ácito</w>
sta ke
Co operation</w>
forder t</w>
mar chandis
F e
E d
peti ción</w>
Chin ese</w>
vis u
tre aties</w>
T anz
ér ia</w>
produc to</w>
alim entos</w>
extraordin aire</w>
wi er
cons enti
B eg
provin ce</w>
Amster dam</w>
requi rement</w>
decisi on-
be ispi
W G
adop te</w>
c s</w>
id ée</w>
traff ic</w>
z iert</w>
t á
ACNU R</w>
it ures</w>
mobil isation</w>
es pañ
phr ase</w>
consu mption</w>
rob i</w>
t ard</w>
b and</w>
fo unded</w>
ar ían</w>
modi fier</w>
Nai robi</w>
\ \
accoun ts</w>
cl ave</w>
dr a</w>
reg is
A y
Ver sion</w>
th es
re ten
wher e
ch air
cré dit</w>
hu itième</w>
Ob je
d op
Ne w
compr endre</w>
f ung</w>
recon oce</w>
h id
reflec ted</w>
Jour nal</w>
pro chen</w>
h es</w>
S ession</w>
pertin ente</w>
ini en</w>
st ör
Paci fic</w>
cultur els</w>
ving t-
bir th</w>
sy mbo
sor mais</w>
humanit ario</w>
gan g
as yl
ne i
environn ement
our able</w>
incre ases</w>
máxim o</w>
ex port</w>
rei che</w>
alcan z
fri ends</w>
Ital ia</w>
en largement</w>
ver ab
so gar</w>
al d</w>
sign s</w>
av antages</w>
indemni zación</w>
Mit arbe
cre ci
ob le</w>
10 9</w>
re o</w>
D rit
0 s</w>
w al</w>
Phili pp
K le
Ex teriores</w>
bli o
Ver besser
demonstr ated</w>
explo si
Ak tiv
ra ise</w>
titul ado</w>
t area</w>
activ ement</w>
logr o</w>
ackno wled
sein em</w>
priv ada</w>
términ os</w>
datab ase</w>
z ca</w>
6 .1</w>
f low
let ten</w>
n ada</w>
pa in
deme ure</w>
bin ding</w>
ke y
viel leicht</w>
h aci
o y</w>
affec tation</w>
Bra sil</w>
B rit
our selves</w>
for est</w>
k ation</w>
s ale</w>
par a
me isten</w>
expos ure</w>
ange wendet</w>
ais se</w>
RE S</w>
si ège</w>
ih m</w>
résult at</w>
appro fon
tal k</w>
am i</w>
fig ures</w>
Minu ten</w>
minor ías</w>
down load</w>
ta g</w>
Med iterran
gener ation</w>
inci dences</w>
ne ur</w>
è vement</w>
as isti
campa ign</w>
on e
w ent</w>
un des
circonst ances</w>
ti les</w>
aus zu
K un
sec und
deu da</w>
princip alement</w>
civili an</w>
transpar encia</w>
è ce</w>
nich ts</w>
uni quement</w>
crimin alité</w>
reci ente</w>
posi bilidades</w>
air port</w>
stor age</w>
Direc tor
Er fol
un ic
10 5</w>
l -
dé sormais</w>
véri fication</w>
son sti
5. 2</w>
W TO</w>
immédi atement</w>
To k
pu issent</w>
apo ya</w>
wan ted</w>
employ ed</w>
in tim
h í
Se e</w>
inter vención</w>
announ ced</w>
dur ación</w>
derni ers</w>
accord ingly</w>
cop y</w>
ter res</w>
su ici
K rank
achiev ement</w>
ater ales</w>
ure usement</w>
í amos</w>
f t
pro mis
u ar</w>
pat ro
becom ing</w>
D H</w>
Educ ación</w>
P sy
F und
extranj eros</w>
AN S</w>
ten den
ren di
ell ed</w>
S alle</w>
M är
satell ite</w>
emer gencia</w>
cli mático</w>
twent y-
é m
Ho sp
estructur as</w>
interes ting</w>
ci ans</w>
trä gt</w>
Ejecu tivo</w>
n ess
alis er</w>
z äh
su itable</w>
Si x
prop ag
respons abilidades</w>
R adi
cu yo</w>
Bos ni
Cari b
budge tary</w>
integr al</w>
Corr .1</w>
lan gue</w>
tor en</w>
Er klär
mach ine</w>
concern és</w>
conf identi
ex -
l auf
Azer bai
ex cel
consid ère</w>
infr actions</w>
ang er
podr án</w>
mit e</w>
perspec tives</w>
Luxemb our
g ave</w>
lí nea</w>
er klär
Premi er</w>
cion ar</w>
1 st</w>
fo h
San ta</w>
prev istos</w>
Kon trol
v ues</w>
l äu
tabil ity</w>
pharm aco
net works</w>
best en</w>
Aus wirkungen</w>
confirm ed</w>
äch lich</w>
Con tr
de pos
gehör t</w>
pro pone</w>
di jo</w>
contr ato</w>
W ash
al location</w>
efec tiva</w>
Or t</w>
encontr ar</w>
pouv ons</w>
adqu isi
ter cer
appar a
procé der</w>
h und
res tre</w>
Poli ce</w>
direc ta</w>
F ern
déten us</w>
entr ada</w>
AT E</w>
kl ar</w>
candi dat
Se a</w>
estiv al</w>
métho de</w>
Asi mismo</w>
li g</w>
respectiv ely</w>
Agr icul
mar a</w>
app elle</w>
lar ger</w>
li p
ent ered</w>
o cu
char acter</w>
estim é</w>
plan o</w>
PRODUC T</w>
Carib bean</w>
glau be</w>
tion ,</w>
di eron</w>
" ,</w>
cur ren
se tzt</w>
efec tivo</w>
mon t
pour ra</w>
dis cre
circul ation</w>
prohibi ción</w>
conna issance</w>
fr ü
í tim
mo l</w>
peti ts</w>
fer a</w>
wo od</w>
encarg ado</w>
For tschrit
Docu ments</w>
infec tions</w>
M os
Comerci o</w>
transi t</w>
accor der</w>
com prim
del ay</w>
è que</w>
ju ven
M ov
F örder
ć </w>
as c
defini ción</w>
re mpli
menu do</w>
Sup port</w>
emp foh
Des arme</w>
essenti ellement</w>
expos é</w>
lu min
dynam ic</w>
congratul ate</w>
continu ent</w>
inst amment</w>
w ishes</w>
m ap</w>
G H
ple in</w>
Islam ic</w>
expan sion</w>
w ahr
Commun ic
enten du</w>
ph ilos
Ver fahren</w>
reserv ation</w>
exp li
ten sion</w>
teri or
stoc ks</w>
i ère</w>
N O
mon tre</w>
excep t</w>
hy dr
th ers</w>
répon ses</w>
studi ed</w>
aconte cimientos</w>
ren ouvel
de le
äch st</w>
Nä he</w>
Seg un
psy cho
Menschen rechte</w>
har m</w>
appro aches</w>
fu ente</w>
pl ément</w>
z- vous</w>
Um setzung</w>
ten d</w>
desarrol lar</w>
S u</w>
er zi
im m
f ish</w>
I X</w>
fu t
gen ie
Europ as</w>
he im
P C
s tic</w>
represent a</w>
rece voir</w>
segu ido</w>
al ed</w>
Z us
Ste uer
remain ing</w>
e ight</w>
emphasi s</w>
ver dad
we ch
ish eries</w>
Orig inal</w>
enti ties</w>
Seg ún</w>
K amp
B em
H ö
ver ständ
so ver
c ord
fon dée</w>
© </w>
N A</w>
P f
Se k
2 6
inter ior</w>
li ver</w>
sum é</w>
Swe den</w>
modi fied</w>
sta at
ein schließlich</w>
cont acts</w>
pro cès</w>
Luxembour g</w>
aur aient</w>
7 .</w>
an unci
trat er
dis fr
histor ic</w>
noti fication</w>
oc cidental</w>
substanti al</w>
comple ta</w>
en ,</w>
F CCC</w>
econom ies</w>
hol ding</w>
Ver kehr
ofici osas</w>
sig nat
arri v
vo l</w>
human o</w>
ac o</w>
spir it</w>
S ter
té mo
Ge biet</w>
reason able</w>
K op
marchandis es</w>
ver ,</w>
adel ant
F eh
H igh
E st</w>
í n</w>
stoc k</w>
comun es</w>
4. 8</w>
requi ere</w>
T here</w>
du es</w>
ouver t</w>
europ ea</w>
envis ager</w>
mar ked</w>
intol er
pro ve
Uni versidad</w>
Lí bano</w>
health y</w>
M ulti
In f
formul ación</w>
dest ro
Mediterran ean</w>
actu aliz
U p
at te</w>
ne z</w>
Wel t
qu ir
resul ta</w>
Wo che</w>
hor iz
fü ll
0. 000</w>
es tre</w>
er ta</w>
ph én
de tal
tar gets</w>
Jer usal
su ma</w>
ev entu
n in
Lo i</w>
s ín
appli es</w>
ó s
E gyp
enter prises</w>
hal tung</w>
compe tent</w>
pres se</w>
st ations</w>
génér aux</w>
im in
cle an
zun ächst</w>
So li
deman ds</w>
colle agues</w>
erfol gre
G han
requ er
montr é</w>
diversi dad</w>
st eh
par ame
ju ges</w>
elec ción</w>
prostitu tion</w>
dirige ants</w>
empê cher</w>
Prof es
pl emento</w>
farm ers</w>
H ä
exp lici
MONU C</w>
consider ing</w>
main tained</w>
ges ehen</w>
me tros</w>
sé min
ch é</w>
favoris er</w>
charg ée</w>
bedeu tet</w>
je un
Sal v
UN HCR</w>
De bian</w>
pr ati
ale za</w>
man aged</w>
gu a</w>
encuentr an</w>
com ercial</w>
chap .</w>
commerci ales</w>
e presid
consolid ación</w>
refor zar</w>
em ail</w>
Qu in
N ouvel
de terior
reven u</w>
Ver handl
deman da</w>
0 9</w>
ade ur</w>
FE M</w>
mainten ir</w>
conf id
raci ale</w>
sent ence</w>
capaci dades</w>
climati ques</w>
técn icas</w>
Ru les</w>
li bri
in side</w>
Reg ulation</w>
mod alités</w>
mortal ity</w>
buds man</w>
verschied ene</w>
s cr
Y ou
examin ó</w>
all ég
atr ic</w>
eben so</w>
M oh
Asoci ación</w>
li bre
v end
ih rem</w>
w onder
en .</w>
Mar k
Record s</w>
Bal k
charg ed</w>
sh aring</w>
tin g
num éro</w>
oph ob
wer de</w>
po d
inform é</w>
Commiss ariat</w>
In de</w>
chang ing</w>
se i</w>
Er it
Cari be</w>
proper ly</w>
vis ite</w>
ac lar
log ement</w>
crip tions</w>
ac compan
v enta</w>
requér ant</w>
trad uc
CON F.
Guin ea</w>
au lt</w>
deme ur
Facult ativo</w>
rap p
cu ya</w>
afec tados</w>
ad hésion</w>
sur viv
m auv
pág ina</w>
Be zug</w>
aco ge</w>
f ase</w>
il er</w>
lanc é</w>
Organ ismo</w>
ordin ario</w>
ens ay
ill ég
nam ely</w>
relie f</w>
su jet
embar az
Gemein schaft</w>
dé grad
re fl
plen o</w>
be handelt</w>
se ts</w>
par as</w>
N ep
enti tés</w>
comm is</w>
ocup ación</w>
soulig ne</w>
emo glob
exclu sive</w>
te te</w>
re p
Re i
li gence</w>
res pir
cos to</w>
Str ate
ap parten
samm lung</w>
Slo v
catastroph es</w>
Secon d</w>
m ér
garanti z
né anmoins</w>
aprob ada</w>
n it
cu t</w>
exten d</w>
ach ev
O M</w>
isti que</w>
din ero</w>
int estin
distinc tion</w>
bil dung</w>
a chen</w>
intermédi aire</w>
ex haus
N os</w>
confer ences</w>
d ente</w>
li ert</w>
wi de
P D
um fass
it ali
Ver wal
defin e</w>
L E
fe u</w>
n ant</w>
parti </w>
Sou dan</w>
de cor
pho to</w>
Bed ingungen</w>
So zial
recuper ación</w>
alco hol</w>
C ela</w>
illici te</w>
s tries</w>
R ates</w>
k erung</w>
com fort</w>
st es</w>
presid ency</w>
su stitu
é changes</w>
20 15</w>
s ag
L oc
g än
fre quently</w>
ún ica</w>
Ben utz
mal gré</w>
comb ating</w>
probl em
expec t</w>
adv anced</w>
emplo is</w>
st an</w>
respon der</w>
o ,</w>
mani fi
mala die</w>
b ad</w>
Itali an</w>
i bid</w>
pág .</w>
n ungen</w>
collè gues</w>
Moy en-
cuis ine</w>
cris es</w>
K ab
L es
human a</w>
el ten</w>
speci fied</w>
a tribu
fa x</w>
Dr uc
ma ßnahmen</w>
K am
évén ements</w>
estr ic
estadís ticas</w>
selec t</w>
ê me</w>
chem ical</w>
se t
play ers</w>
réguli èrement</w>
suc ces
pro mp
top ic</w>
col or</w>
é vo
exclu sion</w>
mod èle</w>
h ält</w>
anst al
ber ücksich
phar ma
U l
ré v
metho d
Syst ems</w>
opini ons</w>
Dep endencia</w>
é po
iss ons</w>
E cu
Se de</w>
sur g
hol ds</w>
un able</w>
enf ance</w>
preci os</w>
transfer encia</w>
ven cia</w>
j i</w>
om en
je des</w>
De z
inter no</w>
public ación</w>
y ers</w>
tiv ely</w>
qui et</w>
stand s</w>
médic aments</w>
Pe ace</w>
9 00</w>
Tra in
t- programme</w>
aux quels</w>
lo x
b esser</w>
olo gi
celebr ación</w>
decision- making</w>
envis ag
Uni versit
com it
pendi entes</w>
B iss
2 2
nation alité</w>
W H
especializ ados</w>
k s
ate -
suiv ante</w>
r at</w>
in hal
Com pu
tier ra</w>
happ y</w>
po etin</w>
partner ships</w>
war ten</w>
pu ts</w>
decre ase</w>
B ret
subse quent</w>
comple to</w>
re as</w>
M s.</w>
mu tual</w>
consu mo</w>
ak h
mejor a</w>
al ign
we ak
up dated</w>
é ro
Re chte</w>
prob ably</w>
Scho ol</w>
anni vers
tig er</w>
lin ed</w>
än de</w>
activ amente</w>
lo cu
Zu gang</w>
im per
condu ite</w>
Amend ment</w>
reclam aciones</w>
go t</w>
Strateg y</w>
sub regional</w>
vulner ables</w>
rap id</w>
out standing</w>
Pr ime</w>
L .</w>
ch s</w>
sem anas</w>
destin ation</w>
S '</w>
discipl in
garant ías</w>
Verein ig
fin dings</w>
sem aines</w>
non- prolifération</w>
b one</w>
éco le</w>
ver antwor
ten ant</w>
A D</w>
vis ual</w>
shi p
dou te</w>
adul t</w>
soulig ner</w>
ble iben</w>
usu al</w>
cor rig
ch ets</w>
experi ences</w>
nei ther</w>
ser vers</w>
Señ orías</w>
si onn
Table au</w>
mondi alisation</w>
Moyen- Orient</w>
198 0</w>
tes ting</w>
at ar</w>
inhi bit
hu main</w>
juris diction</w>
Ges ellschaft</w>
dou bt</w>
be obach
Belgi um</w>
inten ción</w>
E valu
dis placed</w>
ré fér
vi able</w>
solu ciones</w>
impos ed</w>
e o
nom in
z en
tr ack</w>
de tte</w>
E str
conserv ation</w>
Kon ta
inter nes</w>
oc curred</w>
super vision</w>
. B.</w>
näch sten</w>
di enen</w>
A TION</w>
de masi
L am
zi ème</w>
ac ement</w>
D istr
ju dic
neces ita</w>
model s</w>
peque ños</w>
desempeñ ar</w>
it age</w>
ámb itos</w>
ter ap
attemp t</w>
men u</w>
T É
u bic
s un
play er</w>
iv er</w>
lo g</w>
ó p
l len</w>
e ch</w>
8 .</w>
infr action</w>
Eig en
k it
comb usti
dur ation</w>
jurídic os</w>
har d
vulnér ables</w>
é cou
rech az
Gr and</w>
busin esses</w>
wom an</w>
constitu te</w>
nun ca</w>
è mement</w>
we alth</w>
chim iques</w>
tä glich</w>
idi omas</w>
Sup plement</w>
imp air
imp li
é s
o ft</w>
Lab our</w>
agra deci
sy m
g az</w>
tâ che</w>
Afr icana</w>
proch aine</w>
subse quently</w>
meas ur
D ol
réglement ation</w>
fer enz</w>
pon en</w>
Biss au</w>
ú s
su el
autor es</w>
inv itation</w>
ent reg
Bulg aria</w>
for êts</w>
richt ung</w>
nom m
sp ann
Ch ief</w>
Kor ea</w>
inclu yen</w>
el ing</w>
Jahr hunder
resul ted</w>
prépar ation</w>
un employment</w>
sensi tive</w>
Ambass ador</w>
Des de</w>
ak zep
entsche id
réparti tion</w>
proper ties</w>
fr ac
Lt d</w>
deu tlich</w>
t z</w>
deliber aciones</w>
réserv es</w>
T at
cor ri
sou ver
cap e</w>
declar ation</w>
consci ence</w>
z eh
all erg
budge ts</w>
fall en</w>
éch é
inst a</w>
competi tive</w>
ben u
Sel on</w>
extrê mement</w>
statis tical</w>
huma ine</w>
dé fici
contro ls</w>
cre ado</w>
sub stitu
catég ories</w>
T age</w>
ish er</w>
titu des</w>
i ii</w>
Me tho
atte int</w>
mpf ung</w>
Mat eri
Mo z
dev ra</w>
n äm
jud ges</w>
interpre tation</w>
Dez ember</w>
tre at</w>
mis mos</w>
Früh stü
adjust ment</w>
reci entes</w>
näm lich</w>
Pe ace
18 0</w>
pharmaceu tical</w>
vi ennent</w>
Pac ífic
struc tural</w>
est én</w>
pérdi da</w>
Ch ec
atin a</w>
amoun ts</w>
g ain</w>
suff ering</w>
de lic
Ges am
Fin an
U. S.</w>
liqu id
instruc tion</w>
M igr
O ne</w>
is ting</w>
défin ir</w>
Ambi ente</w>
é cl
Car aï
entwick elt</w>
ex pedi
fe ature</w>
stre et</w>
Author ity</w>
fo ot
s aying</w>
issen schaf
mínim o</w>
jud g
mar kt</w>
permet tent</w>
L at
Sud -
rece ttes</w>
pay ments</w>
er he
ig keiten</w>
Sto ck
vor gesch
W ach
y l</w>
com posición</w>
els weise</w>
clas ses</w>
port ent</w>
procè s-
ze ch</w>
gi o</w>
activ o</w>
Com unidad</w>
identi ty</w>
Wash ington</w>
v öl
str essed</w>
trav ers</w>
re tour</w>
se ite</w>
Mar co</w>
bas ada</w>
own ed</w>
pr ie</w>
P ho
sign é</w>
M ay
G ebr
sto od</w>
compro meti
inter -
R aci
vo té</w>
liber tés</w>
R .</w>
res ear
ass ess</w>
hö ch
Insu lin</w>
G ra
B ev
Ni ño</w>
car ga</w>
tâ ches</w>
S ah
em or
a por
soix ante-
pron onc
T -
fun ktion
Soci ety</w>
ú til</w>
d l</w>
Ambass adeur</w>
beispi elsweise</w>
tr ying</w>
objec tion</w>
situ é</w>
Gu ide</w>
or row</w>
mari time</w>
pro puesto</w>
OM S</w>
He adquarters</w>
physi que</w>
C zech</w>
ho ffe</w>
sch affen</w>
sig a</w>
ex posición</w>
Grund lage</w>
a el</w>
Ir land
cont acto</w>
En ter
g é</w>
W e</w>
ç ons</w>
Mar kt</w>
frequ ency</w>
Su isse</w>
Th ir
sufici entes</w>
meil leur</w>
categ orías</w>
F est
seven th</w>
ib t</w>
O ther</w>
Rich tung</w>
Nor te</w>
et -
n is
0, 000</w>
eng ine
Caraï bes</w>
cu lo
f áci
autor ización</w>
Besch äf
form ing</w>
chron ic</w>
con vers
p he</w>
atori os</w>
document ación</w>
don ors</w>
Mas ch
G N
pas se</w>
bathro om</w>
see king</w>
Op tional</w>
ex ecutive</w>
é tica</w>
je dem</w>
Turqu ía</w>
fici ales</w>
I de
dis aster</w>
reconn u</w>
Reg istr
op ath
ã o</w>
adecu ado</w>
fourn is
Ghan a</w>
gl ass</w>
plement ation</w>
an ten</w>
pass ed</w>
règ le</w>
ajou ter</w>
mala dies</w>
bor ders</w>
Z iele</w>
sugges tions</w>
d enti
character istics</w>
änder t</w>
co ated</w>
F our
Fran k
he ar</w>
des cribe</w>
un ver
att ack</w>
lo ve</w>
Fin land</w>
abier ta</w>
at titude</w>
fail ed</w>
incre ment
g estimmt</w>
K l
Re ak
introdu ce</w>
z as</w>
it -
ber u
oc tro
acquit ter</w>
gel eg
Joh ann
applic ables</w>
on ne</w>
func tioning</w>
Su plemento</w>
civili ans</w>
glu co
we is
av ance</w>
propi os</w>
dis abilities</w>
te -
Le ona</w>
recomm end</w>
esp ér
tab let</w>
par fois</w>
buff et</w>
ac ept
inf lam
denunci as</w>
contr aire</w>
v ín
lo ss
appro bation</w>
considér é</w>
gr iff</w>
Poli tical</w>
Administr ative</w>
ré formes</w>
ve u
kle inen</w>
Pres u
brit anni
ad her
ev olución</w>
considér ation</w>
aus gest
record s</w>
moder ne</w>
car te</w>
im i
li vr
C D
fac ed</w>
acquisi tion</w>
fas st</w>
b lu
n d</w>
ge tting</w>
we ver,</w>
expres ión</w>
medic amentos</w>
Verbind ung</w>
tele phone</w>
activ a</w>
ag grav
en regist
préoccup é</w>
ed .</w>
examin ado</w>
est oy</w>
présent ées</w>
natur aleza</w>
appli que</w>
it ary</w>
guarante es</w>
tion s
dispos al</w>
Kol leg
An sicht</w>
do sage</w>
tom orrow</w>
histor ia</w>
moy enne</w>
activ os</w>
enth alten</w>
famili ares</w>
ru bri
verwen den</w>
ten e
P- 4</w>
Bi o
encour ages</w>
a o</w>
T ür
Ad op
ad joint</w>
depend ing</w>
s as</w>
déci de</w>
än dern</w>
Cor ea</w>
er radic
9 .</w>
fun d
in sist
Verantwor tung</w>
der ly</w>
ap el
H om
198 6</w>
mortal idad</w>
Str u
Vi enne</w>
infrastruc tures</w>
L -
durch geführt</w>
er adic
198 7</w>
ung er</w>
as ing</w>
s embl
man do</w>
C ent
ex cipients</w>
strength ened</w>
ambi entales</w>
Tag es
H ai
N a
A spe
a que</w>
Instr um
ty- building</w>
da ños</w>
c tion</w>
haci endo</w>
israel íes</w>
represent ation</w>
asi a</w>
phén om
W est
dû </w>
el emento</w>
ges etz
commenc é</w>
ös ung</w>
run ning</w>
pouv ait</w>
un cia</w>
Slo ven
wide ly</w>
ili gen</w>
d ge</w>
Hab it
ess or</w>
manifest ations</w>
pár rs</w>
I P</w>
graph ical</w>
for t
ch au
dé lais</w>
Pl en
europé ens</w>
su gar</w>
M D
De ci
amen ded</w>
inmedi at
Irland a</w>
any thing</w>
M and
W ieder
re mun
at ro
hon or
be tra
con ocer</w>
Sy n
ar ts</w>
tis ch</w>
st ages</w>
1 000</w>
Vorsch läge</w>
Ko sten</w>
ti vi
cier to</w>
fer n</w>
Parti cip
logr ado</w>
un er
Par t</w>
ür z
contribu ted</w>
permet tra</w>
tion .</w>
équ itable</w>
el o
bo s
inst ances</w>
cl asi
ke pt</w>
T it
gesam ten</w>
C amp
Micro soft</w>
res truc
UN ID
pri cht</w>
shor t
L ig
ti erras</w>
am ing</w>
remun er
verfü g
con tre
Belar us</w>
ös en</w>
Bil d
verfü gt</w>
offici euses</w>
ded or</w>
ad hesión</w>
enh anced</w>
créd its</w>
rais ing</w>
st am
effic acement</w>
la x
or adores</w>
on i
Ad option</w>
R A</w>
ant as
al bu
efici encia</w>
Embaj ador</w>
co ff
Rei he</w>
fre i
P R</w>
plac ebo</w>
Be zieh
CE DA
li ban
un te
d ay
augment é</w>
vo is
ar i</w>
cap .</w>
ap pr
P lu
Sup plément</w>
cam ps</w>
his toire</w>
Zim bab
play ing</w>
C F
ve h
lo gros</w>
dr ück
U ru
Pak istán</w>
tour ism</w>
h all
inter gouvernement
li ers</w>
acom pañ
air craft</w>
Fr id
sû reté</w>
im pose</w>
F lor
resol ve</w>
R am
Strate gie</w>
² </w>
w ater
compl et</w>
figur ent</w>
interpré tation</w>
tis su
dirig entes</w>
boo ks</w>
per m
stake holders</w>
te ten</w>
G estión</w>
cas a</w>
G -
shop ping</w>
S mi
du l
dar um</w>
Oc cidental</w>
ün sti
ti tle</w>
g obern
appoint ment</w>
indi quer</w>
equip os</w>
er to</w>
Document os</w>
port ées</w>
E v
consom mation</w>
celebr ar</w>
sp aci
judici aires</w>
A gence</w>
remo ve</w>
Nep al</w>
añ adi
vi ven</w>
. ht
arm ing</w>
re viewed</w>
4 .1</w>
bu en</w>
reconna issance</w>
prü fen</w>
bel ong
m als</w>
ré par
st elle</w>
des apar
Mög lichkeiten</w>
Cor por
f air
for te</w>
ti endra</w>
anz as</w>
accu mul
extraordin ario</w>
In sul
is ches</w>
gam es</w>
esp agno
he ureusement</w>
sob er
di vision</w>
Ap lic
fix ed</w>
t ack
Commun auté</w>
glyca emia</w>
sy r
spre ad</w>
inter governmental</w>
S itz
sch le
Mon tene
lat ter</w>
franc és</w>
Jo int</w>
investig ations</w>
on e-
UNO PS</w>
hat ten</w>
et tes</w>
tri p</w>
li bres</w>
min orities</w>
An gele
vel ar</w>
total mente</w>
b ig
Fam ily</w>
ac ade
tas as</w>
Gro ß
b id
CEDA W</w>
cons ent</w>
formul ées</w>
pos ed</w>
ci-des sous</w>
Vi ena</w>
sou dre</w>
m mol</w>
dr am
1 .1</w>
a qui
Mo del
13 .
is mus</w>
initi ated</w>
an i</w>
in com
Gr an</w>
re des</w>
w il
segu irá</w>
Po ten
neh mer</w>
F ach
o ir</w>
ex primer</w>
Trans port</w>
exer cer</w>
psy chi
movi lización</w>
abhän g
lo gi
avanc és</w>
consom mat
ein ander</w>
seri ously</w>
no ting</w>
Ver trag</w>
prob able</w>
impair ment</w>
B aj
Leban on</w>
dr y</w>
as a</w>
consul ta</w>
ma x</w>
we ï
up date</w>
po se
stat t
ou ter</w>
wor th</w>
aband on
Ho ch
danger ous</w>
re formas</w>
i. e.</w>
développ és</w>
apart ments</w>
do le</w>
becom es</w>
rése aux</w>
hacer lo</w>
inter rog
h of</w>
Al gun
---- ----
E astern</w>
élè ves</w>
P- 3</w>
Moh am
c ast
suffis amment</w>
ari amente</w>
er tes</w>
isi erung</w>
compl y</w>
Inter esse</w>
campag ne</w>
ais es</w>
for dern</w>
regul arly</w>
pro sper
In halt</w>
Is lands</w>
Turqu ie</w>
er ía</w>
le ider</w>
met tant</w>
Go als</w>
den omin
ier en
ger n</w>
z .B.</w>
Er weiter
J ug
S é
accu eil</w>
Ori ental</w>
telev ision</w>
C á
B -
pregn ant</w>
Saf ety</w>
particuli ers</w>
econom ías</w>
ex empl
An wend
wh at
de ep</w>
recur so</w>
Erit rea</w>
Philipp ines</w>
vivi enda</w>
elimin ation</w>
con seguir</w>
ç ant</w>
gli cht</w>
Z ul
t ter
enor m
mes a</w>
s cen
fass ung</w>
Su stain
bien estar</w>
Direc tive</w>
c af
me d
a fi
sa che</w>
t old</w>
wäh len</w>
ve -
C in
re alis
ing re
b au
S t</w>
architec ture</w>
concep tion</w>
Cu estiones</w>
ex tradition</w>
t- il</w>
sur vey</w>
é tique</w>
ungs ver
coordin ated</w>
fu el</w>
gemä ß</w>
fin ding</w>
N etz
al um
dev ice</w>
d ents</w>
Erk rankungen</w>
k ro
weiter en</w>
vol umen</w>
y our
ke its
neigh bo
N ation
inter venir</w>
caracter ísticas</w>
id en
ungs be
industri a</w>
Bev öl
constitu tional</w>
cop ies</w>
li fe
aco g
for z
chan ces</w>
expres ó</w>
fir stly</w>
MB ER</w>
re produ
r as</w>
er mö
20 20</w>
ve ge
in ter</w>
minor ity</w>
pres entes</w>
tel n</w>
Mal ta</w>
cont ar</w>
c en</w>
emple ados</w>
fol gen</w>
S ir
automati cally</w>
sim plement</w>
äh n
pass eng
be finden</w>
purch ase</w>
pl or
diabe tes</w>
Fif ty-
porcent aje</w>
prim aria</w>
sex o</w>
wir tschaft</w>
asi le</w>
e de
rev it
Des ign</w>
ä tzen</w>
Vic epresid
libert ades</w>
ed ,</w>
sch luss</w>
Ver trag
Di en
improv ements</w>
fü r
lim its</w>
Zentr um</w>
hel fen</w>
sp h
Om budsman</w>
re place</w>
for est
Uru gu
ell ung</w>
Sec ción</w>
hist ór
Montene gro</w>
W asser</w>
bring ing</w>
Canadi an</w>
196 7</w>
particip ating</w>
De puis</w>
hibi tion</w>
ermö glicht</w>
I b
ni ed
veu illez</w>
dé cr
créd ito</w>
w ai
mess ages</w>
capaci ty-building</w>
C el
Al liance</w>
patro cin
pobl aciones</w>
schein t</w>
inser tion</w>
urg ente</w>
Leg isl
A h
MIN IS
cooper ate</w>
lic ken</w>
demostr ado</w>
per tes</w>
complain ts</w>
connec ted</w>
mittel n</w>
err or</w>
di ed</w>
assess ed</w>
organis er</w>
se i
ob wohl</w>
mehr ere</w>
freed oms</w>
ne ar
candi dates</w>
L eu
in n</w>
ar los</w>
einzel nen</w>
deta il</w>
eg el</w>
welt weit</w>
amb as</w>
escu ela</w>
abo li
our ce</w>
interes adas</w>
D or
K e
off ences</w>
estudi antes</w>
H -
périodi que</w>
si f</w>
destin és</w>
garant ía</w>
professionn elle</w>
hac en</w>
so -
glei chen</w>
Cu adro</w>
Mon ter
we g</w>
appe ared</w>
dig ung</w>
w on</w>
duc ción</w>
Be trieb
n ü
cham bre</w>
éch el
né ces
ent amientos</w>
ch s
20 12</w>
wirtschaf tlichen</w>
al re
T C</w>
no tion</w>
ministr es</w>
incid ents</w>
bal anced</w>
dedic ated</w>
For m
qu it
mit ad</w>
ah len</w>
n esses</w>
dé pu
o gen
clas se</w>
wal king</w>
pl ants</w>
opti mis
pu s</w>
incorpor ated</w>
z can</w>
av ing</w>
re to</w>
conse quently</w>
gar de</w>
convin ced</w>
aff ung</w>
formul adas</w>
program m</w>
candi dats</w>
Con si
ré soudre</w>
best eh
s au
W asser
Pol and</w>
A prob
bénéfici er</w>
contribu é</w>
3 5
bre ak</w>
k enn
K no
2 .1</w>
S ite</w>
s or</w>
A ir</w>
engag ed</w>
C A</w>
Mex ique</w>
sw im
Pri or
F ak
crip ción</w>
Im plementation</w>
pê che</w>
Ir lande</w>
e be</w>
inf ancia</w>
H is</w>
ne arly</w>
au quel</w>
Cop enh
L ou
res umen</w>
parl ement
popul aire</w>
aplic a</w>
ar gent</w>
ni k</w>
ange bo
ri eben</w>
restruc tur
pa th</w>
ten de</w>
cô té</w>
em ed</w>
sep t</w>
re it
ne as</w>
acc él
appu ie</w>
Cro ati
disposi tif</w>
crib ed</w>
ing -
N ucle
bi ais</w>
islam ique</w>
fondament ales</w>
minist éri
sign al</w>
P s</w>
per form</w>
atis ch</w>
tu ber
Fr amework</w>
bere it
ate ful</w>
oper ate</w>
demo krati
ré alité</w>
198 5</w>
St atis
dad urch</w>
re patri
g al
kon kre
Ir án</w>
w under
fol gt</w>
dé roul
T O
Ergeb nisse</w>
ampli ación</w>
safe gu
PAR TIC
indu stries</w>
Salv ador</w>
Fl ü
a emia</w>
fin d
O ver
v ess
correspon de</w>
An gaben</w>
W ar</w>
aff airs</w>
un idades</w>
gre en</w>
N av
distribu ted</w>
Herr en</w>
indic ations</w>
unter nehmen</w>
mul tin
scre en</w>
effectiv ement</w>
Schrit t</w>
permiti r</w>
tw ice</w>
lo k
an aliz
confer encia</w>
me to
tiv eness</w>
integr ado</w>
mar ine</w>
llam amiento</w>
régl er</w>
prepar ado</w>
Q ue</w>
Mol do
ter cera</w>
eigh th</w>
examin ation</w>
val or
propó sito</w>
tan dis</w>
ré vision</w>
1. 2</w>
oc k</w>
on cer</w>
wür den</w>
concl u</w>
per centage</w>
konn te</w>
ís tica</w>
V illa</w>
K ri
sim pl
itor ía</w>
sti pul
por no
spéci aux</w>
Soli dar
be züglich</w>
J '</w>
respon ses</w>
Tran si
celebr ado</w>
Nic ar
a sion</w>
mar ks</w>
Frid ay</w>
ing er</w>
celebr ará</w>
spéci fique</w>
retur ned</w>
F Ü
dr it
expres ar</w>
du ci
Prim er</w>
Mu seum</w>
F al
wer k</w>
L ev
temper ature</w>
periódic o</w>
Ze al
exprim é</w>
Dis kus
Ho tel
expres a</w>
Univers al</w>
re almente</w>
D .
déplac ées</w>
se qu
milli ers</w>
li ability</w>
visit ors</w>
Cr ime</w>
ofrec er</w>
represent ación</w>
your self</w>
Medi das</w>
H af
ata ques</w>
man age</w>
inter rup
oug h
rap porteurs</w>
dri ving</w>
re affirm
posi ciones</w>
cons ists</w>
pass age</w>
pr ak
Techn ology</w>
firm ado</w>
offr ir</w>
Con form
profession als</w>
le ts</w>
us h
pro jec
limit e</w>
correc ciones</w>
atur a</w>
f s
AR S</w>
b ac
ad o
t aciones</w>
reserv ations</w>
justi fic
O ficiales</w>
prim or
col o
tr ic</w>
e ties</w>
Pro secu
Ö ff
Um welt
adelant ados</w>
B estimm
ta il</w>
sch w
de alt</w>
ang em
Tr av
po día</w>
any one</w>
sou g
Austr alie</w>
reç ues</w>
spe ech</w>
rap id
sk a</w>
star ía</w>
Air port</w>
bere it</w>
± </w>
b ung</w>
Exper tos</w>
im ent</w>
FÜ R</w>
const ant</w>
es po
allow ing</w>
in mun
bas ado</w>
lum ière</w>
war m</w>
p ill
le o</w>
Wach st
T ier
ei che</w>
st off</w>
Gre at</w>
in yec
bl er</w>
erk enn
absolu tely</w>
nacion alidad</w>
oc cupied</w>
sig keit</w>
gemein samen</w>
T ä
bes u
Pau l</w>
.. ..</w>
H .</w>
utilis ées</w>
pro venant</w>
ger ne</w>
dev ices</w>
vari ables</w>
classi fication</w>
hes ion</w>
K al
wen ig</w>
Cor ée</w>
og le</w>
with dra
M ass
necesit an</w>
T U
vali d</w>
so dium</w>
u er</w>
de ad
limit ée</w>
ch ô
desarroll ados</w>
fir m</w>
organiz ational</w>
lu char</w>
signific a</w>
ac ta</w>
m ic</w>
fü llen</w>
tot ale</w>
H ong</w>
w in</w>
représent ent</w>
ro se</w>
esfuerz o</w>
volon taires</w>
w all</w>
all ant</w>
an o
en vo
fé min
lo in</w>
rel atively</w>
streng th</w>
sp ent</w>
je u</w>
se its</w>
priv ées</w>
pron unci
thre ats</w>
finan zi
loc k</w>
h ands</w>
habr ía</w>
eh m
P ER
author ized</w>
pa ir</w>
supplé mentaire</w>
be vor</w>
20 13</w>
reli able</w>
budge t-programme</w>
t ats
G E</w>
Sch i
gr ateful</w>
inclu sión</w>
part age</w>
recu e
recep tion</w>
adel ante</w>
l ob
Discrimin ation</w>
deb ati
si des</w>
ne u</w>
aci d</w>
5. 3</w>
itu d</w>
pl ur
ev ening</w>
Con clu
ma tr
St .</w>
dis h</w>
gemein same</w>
garanti e</w>
syn drome</w>
th è
Parti e</w>
re medi
conven u</w>
cau tion</w>
sozi alen</w>
obstá culos</w>
A sian</w>
est ados</w>
S I</w>
con comit
Minis ters</w>
proch ain</w>
Wir tschaft</w>
can adi
mo ther</w>
oc urr
emb ol
k at
Pl as
Beh ör
ten en</w>
pré hen
Sub comisión</w>
C inqui
collec te</w>
der -
w ahl</w>
kul tur
ori al</w>
NU MBER</w>
Res pon
Off icial</w>
dem ment</w>
Vi el
B ré
Sud á
partam entos</w>
pr isión</w>
gesam t</w>
sie te</w>
is -
i- même</w>
s ays</w>
teach ers</w>
mag n
Zimbab we</w>
gemein sam</w>
Stat us</w>
particip ated</w>
cer r
Ser ver</w>
eri en</w>
land s
ampli ar</w>
Nouvel le-
Off ic
bien -
fun den</w>
élec tion</w>
reproduc tive</w>
att et</w>
prépar atoire</w>
la iss
th ly</w>
M L</w>
them e</w>
elec om
refle j
or ateurs</w>
rehabil itación</w>
harmon isation</w>
L ag
Sudá frica</w>
Ur lau
all ou
TR ANS</w>
Ar men
Berichterstat ter</w>
étudi er</w>
aspec to</w>
sais i</w>
A -
cu y
flexi bility</w>
compar ación</w>
contr ario</w>
T hom
lo v
g esti
on to</w>
emoglob in</w>
lu z</w>
Sustain able</w>
físi ca</w>
grup pe</w>
Pacífic o</w>
pres cription</w>
tim ely</w>
indé pendant</w>
contr ary</w>
ir able</w>
kle ine</w>
compr endido</w>
equ it
mem ory</w>
asyl um</w>
Mon day</w>
T able</w>
inclu sive</w>
N om
précé dent</w>
Urugu ay</w>
entsprech end</w>
inn en
spi elen</w>
ed onia</w>
s- B
Su iza</w>
ag g
multilater ales</w>
favor ables</w>
rec ens
re action</w>
st -
di chas</w>
f elt</w>
ar k</w>
obstac le</w>
Dis armament</w>
enregistr é</w>
a ther
un ités</w>
f igh
compet entes</w>
per cent</w>
princip ale</w>
no on</w>
ingre di
f ör
iv </w>
é duc
il eg
asi lo</w>
könn ten</w>
ast ers</w>
rech ts
ver stär
les en</w>
mean ing</w>
ho c</w>
su i
N ieren
cam ino</w>
Br ussel
org án
soug ht</w>
lu ego</w>
trat os</w>
intégr er</w>
join ed</w>
invol ve</w>
oc é
C ru
Lo g
europe os</w>
syr inge</w>
work shop</w>
ex terior</w>
ir o</w>
s pricht</w>
ig er
mé todo</w>
plen aria</w>
de ur</w>
gu staría</w>
handicap és</w>
direc ted</w>
entre pren
Plat z</w>
is ent</w>
em and</w>
ext érieur</w>
Quin ta</w>
equ ally</w>
M ah
success fully</w>
IS O</w>
específic as</w>
Sign é</w>
it ze</w>
Fis cher
preven ting</w>
Stu die</w>
quali fied</w>
bl ess
eg as</w>
ra zon
r and
produc tive</w>
conclu de</w>
Paci fique</w>
ov ine</w>
co la</w>
Eins atz</w>
K ong</w>
tur b
pharmaci st</w>
prov inci
an es</w>
ref ers</w>
Ass istance</w>
p ack</w>
Dav id</w>
interpre tación</w>
sa w</w>
1 4.
d ite</w>
entre pris</w>
ch ter
juris prud
10. 00</w>
mes ur
Roy al</w>
Bel gique</w>
élec tri
ad vers
difer encia</w>
zu dem</w>
Con tribu
chil d
Christi an</w>
commit tees</w>
di pu
at om
Protec ción</w>
ju dice</w>
part ements</w>
procur ement</w>
L atina</w>
äu ßer
v illes</w>
statisti que</w>
y st
exac tly</w>
repercu siones</w>
mo ving</w>
si ert</w>
Gesch ichte</w>
avir in</w>
cifr as</w>
leg ally</w>
A unque</w>
ec o
leng th</w>
ing .</w>
3 6
tradici onales</w>
pré vue</w>
Pl us</w>
Conform ément</w>
r ul
financ er</w>
K ul
B l
ur ge</w>
1 10</w>
ander er</w>
Deb atte</w>
ir ía</w>
spr ä
fir me</w>
sû r</w>
ci dad</w>
R os
P E</w>
communau taire</w>
end rait</w>
El les</w>
ele k
AD MINIS
per te</w>
contr acts</w>
stan den</w>
vol le</w>
Finan cial</w>
li aison</w>
ün g
Go ogle</w>
en contre</w>
Monter rey</w>
en voy
gi p
Her aus
tour n
DV D</w>
E F
Aussch uss</w>
internation ally</w>
ME N
Unter su
der á</w>
di r
corrup ción</w>
G am
d au
D amen</w>
sich ts
fi ées</w>
li dad</w>
izi enz</w>
Jug end
be handel
dev aient</w>
S on</w>
Re fer
der es</w>
r und</w>
pos er</w>
it aire</w>
richt ungen</w>
aprovech ar</w>
auf zu
Förder ung</w>
gen es</w>
ber t</w>
di d
é car
tr ends</w>
e cia</w>
peli gro
Hin blick</w>
dom ici
S co
Soci ales</w>
fourn is</w>
5 9
man o</w>
M al</w>
men ée</w>
CR C</w>
aument ado</w>
lati ne</w>
ent e-
preci o</w>
Net work</w>
ma trimonio</w>
estim ates</w>
chiffr es</w>
For ces</w>
enti er</w>
N ich
sel n</w>
re member</w>
li s</w>
Dienstleist ungen</w>
ier a</w>
appel ant</w>
g ab</w>
PA D</w>
In nov
fronti ère</w>
P .</w>
less ons</w>
Moldo va</w>
te z</w>
élabor é</w>
acti f</w>
D er</w>
IN FOR
E I
illici t</w>
monitor ed</w>
prin t</w>
est rech
ap ine</w>
der ung</w>
res i
Par te
klin ischen</w>
pour suite</w>
fall ait</w>
S D</w>
vill ages</w>
refuge e</w>
buil dings</w>
Medic al</w>
te enth</w>
00 1</w>
dé part</w>
bew ahren</w>
chap </w>
sor gen</w>
Institu tionen</w>
anteri ormente</w>
Vir af
r um
ins gesamt</w>
milli ards</w>
Cinqui ème</w>
fil m-
W ed
ré affirm
S eries</w>
di chos</w>
par am
corpor ate</w>
abhän gig</w>
absolu te</w>
ra il
preocup a</w>
Zeal and</w>
com prob
enti rely</w>
Elimin ation</w>
O k
power ful</w>
regul atory</w>
in her
re clu
ilíci to</w>
pour suiv
pérdi das</w>
B lick</w>
aur ont</w>
ti do</w>
Mitglie der</w>
f ers</w>
great est</w>
términ o</w>
C ab
enregist rement</w>
soci o-
Gre ece</w>
concr ètes</w>
i as</w>
reç o
lon gue</w>
c .
siè cle</w>
pan el</w>
el derly</w>
de urs</w>
objec t</w>
ä r</w>
ber ech
ma ñ
engag er</w>
Z ambi
españ ol</w>
hin sichtlich</w>
stell er</w>
sit ting</w>
pl ätze</w>
questi onnaire</w>
contribu ting</w>
appropri ées</w>
famili ale</w>
po l</w>
gi o
P ass
schrif ten</w>
Energ y</w>
fi k
pro file</w>
Über ein
reven us</w>
co vers</w>
Ex cell
No ta</w>
war um</w>
ir ing</w>
R au
Bré sil</w>
sugg est</w>
rais onn
lan dia</w>
Lib an</w>
charg és</w>
institu cionales</w>
suc ce
N am</w>
moun tain</w>
resid ence</w>
ke i</w>
sensi bi
on avir</w>
geo gráfic
ést os</w>
N ord
T ru
pun ishment</w>
guarante ed</w>
er ,</w>
ri b
recogni ze</w>
suscepti bles</w>
administr atif</w>
D in
rehabil itation</w>
tab ly</w>
er wäh
aug h
i p
ci an</w>
inter na</w>
man ual</w>
is é</w>
re ign
habit aciones</w>
Part ner</w>
func tional</w>
de venir</w>
Prim era</w>
bro w
des c
l ación</w>
w ine</w>
lég ères</w>
nin th</w>
en heit</w>
com isiones</w>
inform ar</w>
continu ar</w>
D on
Mor oc
Fil m
augment er</w>
protec ting</w>
su ger
n ungs
2. 5</w>
atta ched</w>
consider ación</w>
ocup a</w>
ori o</w>
ep iso
comi enz
selb st
r ation
wei ß</w>
off ence</w>
Pro ject</w>
al i</w>
b ast
Aplic ación</w>
Dok um
elec tri
transl ation</w>
ter re</w>
rati fied</w>
fi es</w>
ins cription</w>
Brussel s</w>
fol genden</w>
trad ing</w>
del à</w>
contrat os</w>
s por
B est</w>
nam ed</w>
exig ences</w>
direc tor</w>
N ame</w>
2. 2</w>
expl ain</w>
Verbesser ung</w>
fr esh</w>
nou vel</w>
P ob
estableci dos</w>
Kontrol le</w>
dé chets</w>
Z el
capaci ties</w>
ist ant</w>
E le
ê tres</w>
D ay</w>
W ell
fic ados</w>
quo tidi
ambi ental</w>
aliment ation</w>
M el
Ital ie</w>
Ergeb nis</w>
hepati c</w>
h am</w>
Le ber
trans miti
Proce dure</w>
be ar</w>
s ave</w>
peti tes</w>
exces sive</w>
Pro vin
fun ded</w>
en gen</w>
consum id
se -
pouv ant</w>
f eu
ra in
in no
intégr ée</w>
ay ed</w>
Pay s-B
ma inst
t ítulo</w>
k ina</w>
Pays-B as</w>
cul tiv
Sp ace</w>
PARTIC UL
ur ges</w>
him self</w>
extranj ero</w>
su jets</w>
limit ation</w>
Ab kommen</w>
dur as</w>
F el
concern ées</w>
me in</w>
N L</w>
oper acionales</w>
gar den</w>
habit antes</w>
ess ais</w>
fi able</w>
bed ingungen</w>
Sain t-
Herz ég
extre me</w>
o fi
ha emoglobin</w>
200 1-
S tim
Procur eur</w>
Al ter
v is</w>
con join
ab us</w>
mäß ig</w>
deci n</w>
de ployment</w>
C ir
er lau
M ir
behavi our</w>
minist er</w>
Ver wendung</w>
G od</w>
tw o-
li cht</w>
ab ou
com parti
âg ées</w>
compon ente</w>
fac es</w>
id er
Univers ité</w>
nom ination</w>
vér itable</w>
Herzég ovine</w>
ab ol
inv ité</w>
don or</w>
Nu tz
jurídic as</w>
Pres s</w>
ad er</w>
i ons</w>
ic ole</w>
encourag ing</w>
remo ved</w>
mo ts</w>
dé clare</w>
minis terial</w>
gegen wär
Pharm a</w>
dé g
sustain ed</w>
j er
sec ours</w>
candi datos</w>
ocasi ones</w>
ge tary</w>
f ang
Demokrati e</w>
b ination</w>
véhic ule</w>
l ying</w>
ali enta</w>
conclu ir</w>
consac ré</w>
br idge</w>
Cu ando</w>
SU R</w>
Änderungsan trag</w>
f antas
it ens</w>
W at
Nicar agua</w>
Bosni e-
effec tifs</w>
bl ack</w>
f ast
contr ats</w>
j as</w>
o fer
human ité</w>
I F
con tain
den ke</w>
priv adas</w>
pren ant</w>
cou vr
vo to</w>
fronter as</w>
stric t</w>
CO P</w>
am eri
identi té</w>
Ant wort</w>
recomend ó</w>
Energi e
anu ales</w>
pr us</w>
pl ays</w>
agricul tura</w>
Intro duction</w>
graph ie</w>
sch l
P uerto</w>
décou l
typ ical</w>
Nor thern</w>
declar ed</w>
R em
pe ines</w>
be kommen</w>
a head</w>
Q atar</w>
contra dic
hel ped</w>
procé dé</w>
encourag e
comp ter</w>
TA R</w>
en igen</w>
c ast</w>
electrón ico</w>
scienti fique</w>
félici ter</w>
pho tos</w>
hu it</w>
t ario</w>
concep ts</w>
estratég ico</w>
Th urs
d ens
ad u
ess ai</w>
indic ation</w>
Al g
aquel los</w>
C P.
equi libri
ble ibt</w>
amenaz as</w>
é u
mé decin</w>
consider s</w>
im pedir</w>
- to-
prim aire</w>
f ire</w>
muni tions</w>
loo ks</w>
cam po</w>
clar a</w>
inscr ire</w>
ry th
ver sammlung</w>
gl ements</w>
tend ance</w>
Pop ular</w>
aut ó
hag a</w>
fulf il</w>
man datos</w>
fäh igkeit</w>
peti te</w>
fir ma</w>
Par k
indic an</w>
ve ut</w>
cover age</w>
car ds</w>
mis si
é gi
europe o</w>
ológ icas</w>
tal king</w>
fre i</w>
accompan ied</w>
ad mission</w>
dimen sions</w>
B ou
escol ar</w>
observ ación</w>
film- coated</w>
pic ture</w>
ré tab
calend rier</w>
tor no</w>
subcu taneous</w>
penal ty</w>
ef es</w>
stoc k
expul sion</w>
Esp agne</w>
O H
Verhandl ungen</w>
enti onn
Fo od</w>
tr ation</w>
E- M
t arse</w>
1. 5</w>
vis ita</w>
at ales</w>
con str
e ye</w>
combat tre</w>
U z
x en
seas on</w>
espér ons</w>
Inter ior</w>
Jun i</w>
l ap
pan or
occa sions</w>
an ese</w>
In n
provin ces</w>
qu into</w>
trans form
claim ed</w>
le z</w>
I A
wich tigen</w>
compl ex
ar emos</w>
Ver pflich
prepar ar</w>
S he</w>
D ig
e en</w>
sum mit</w>
vis ées</w>
po w
vor sch
Pre is</w>
form ula</w>
ta k
ológ ico</w>
us h</w>
pertin ents</w>
spä ter</w>
ent endi
afric ains</w>
O ly
fac ts</w>
som it</w>
comple tion</w>
desas tres</w>
F R</w>
parli amentary</w>
pai ement</w>
su sm
Thir d</w>
susm entionn
Änderungsan träge</w>
6. 2</w>
offici elles</w>
b em
se de</w>
mañ ana</w>
depend encia</w>
- 2
illi r</w>
gerich tet</w>
ver sions</w>
therap ie</w>
ec k</w>
M aj
Cy prus</w>
Ma i</w>
av oc
NE PAD</w>
llev a</w>
creci ente</w>
Jur ídic
Rom ania</w>
reach ing</w>
fen ó
c m</w>
regist er</w>
3 4
ag gres
accoun tability</w>
tro op
Lös ungen</w>
teach ing</w>
Risi ko</w>
Au tom
posteri ormente</w>
propor ción</w>
Mon tre
swim ming</w>
solidar ité</w>
ú s</w>
accu sed</w>
philos oph
Entscheid ung</w>
reclam ación</w>
valu able</w>
ch osen</w>
OS CE</w>
continu é</w>
présent ée</w>
per mis
desaf íos</w>
. -
ligh ts</w>
mit es</w>
deli ver</w>
m úl
recu er
mortal ité</w>
ref us
curren cy</w>
Wirk ung</w>
an dum</w>
six ty-
mari age</w>
utiliz ado</w>
Reg ul
d est</w>
highligh ted</w>
2 4-
clim at</w>
al located</w>
assess ments</w>
S C</w>
se em</w>
si eht</w>
excel ente</w>
An zahl</w>
ar abes</w>
re prise</w>
enz en</w>
s ors</w>
commenc er</w>
Bosnie- Herzégovine</w>
ex ci
nied rig
Vi ol
läs st</w>
D os
demasi ado</w>
St ar</w>
arr êt</w>
targe ted</w>
S us
jurisdic ción</w>
hel ping</w>
aliz ado</w>
elimin ate</w>
accid ents</w>
marri age</w>
Pro motion</w>
arm ée</w>
be aring</w>
call ing</w>
te ams</w>
Estr ategi
Ber eichen</w>
evalu aciones</w>
Es to</w>
ult ur</w>
concre tos</w>
k y</w>
Therap ie</w>
qu ej
Kli ma
P as
k illed</w>
resol ved</w>
réd action</w>
uni ème</w>
Inje ktions
techn ological</w>
main taining</w>
rati ficación</w>
én erg
cour age</w>
th y</w>
D at
Empf eh
técn ico</w>
need le</w>
terr ace</w>
cas h</w>
Mich ael</w>
present ada</w>
thin king</w>
g ados</w>
disminu ción</w>
Ro ad</w>
di vul
As í</w>
adul tos</w>
caractér istiques</w>
arri ve</w>
genie ßen</w>
plain tes</w>
Erfol g</w>
lo ir</w>
uti les</w>
™ </w>
S Q
mainst re
conci encia</w>
ac eler
ico les</w>
manufactur er</w>
hou ses</w>
lleg ado</w>
U R</w>
6 0
contro versi
Au ßen
Sw iss</w>
zur ück</w>
lead er</w>
long temps</w>
il ing</w>
Ár abe</w>
Deu xième</w>
ann te</w>
beobach tet</w>
bi ological</w>
Thurs day</w>
Pe ter</w>
We iter
vir al</w>
tre ffen</w>
p it
K oh
tr ó
f est</w>
D RO
Kolleg innen</w>
Cu ar
spécialis ées</w>
US D</w>
ban ks</w>
inv ités</w>
th émati
er re
on ing</w>
labor al</w>
cho ses</w>
ou v
g le</w>
ein gesch
ple ine</w>
atten ded</w>
c tu
E ar
seg ment</w>
E inst
lie gue</w>
Aus druck</w>
me tres</w>
comp éti
l ungen</w>
ati cally</w>
cover ing</w>
K ern
competen ce</w>
Nor way</w>
r ats</w>
conjun ta</w>
dis tan
g ica</w>
I TS</w>
el es</w>
signi fie</w>
de mor
H .
pu ty</w>
continu era</w>
coun tr
t ch
re jected</w>
fru it</w>
campa ign
pour centage</w>
è les</w>
hom bre</w>
genu ine</w>
fl ä
deb idamente</w>
cl av
re ply</w>
prison ers</w>
hau te</w>
fisc ales</w>
UNMI K</w>
ak a</w>
accomp agn
sit z
Pre vention</w>
Comp any</w>
co c
Th ese</w>
believ es</w>
bur den</w>
s éri
B innen
gen annten</w>
dis cover</w>
en ables</w>
experi encias</w>
Ecu ador</w>
ho t</w>
A n</w>
R O</w>
möglich erweise</w>
compon entes</w>
atmosp h
e aux</w>
l av
geh end</w>
b âti
p .</w>
st om
st as</w>
racis me</w>
nach hal
Chair person</w>
vo tos</w>
limit es</w>
alis me</w>
Man u
direc teur</w>
n ine</w>
r en</w>
lear ned</w>
v ast
é rés</w>
delincu encia</w>
unser es</w>
D j
mo tor
erhö h
equival ent</w>
hici eron</w>
im par
prepar ing</w>
thre aten
P age</w>
f isheries</w>
there by</w>
Bur kina</w>
si vely</w>
Vi et</w>
v ements</w>
sor g
ab ge
C lo
dé tec
rele ver</w>
tom ado</w>
au sp
T ai
observ ateurs</w>
sch t</w>
essenti els</w>
TN P</w>
ri chten</w>
inmediat amente</w>
15 .00</w>
técn icos</w>
étro ite</w>
W ech
K ön
la h</w>
Hosp ital</w>
cam paña</w>
employ és</w>
.... ....
ré pression</w>
under take</w>
Auf gabe</w>
Su ite</w>
Fäl len</w>
Aussch usses</w>
s cor
destin o</w>
w ann</w>
u x-
sch utz
i ties</w>
institu tion
TI C</w>
salv agu
hau p
u ega</w>
por tu
agr icoles</w>
att én
b is
cam era</w>
C ep
sou mettre</w>
ci cl
actu ar</w>
fi chi
fe eding</w>
wel fare</w>
carr ying</w>
ä um
alg ún</w>
schedu led</w>
Per son</w>
Chr ist
human idad</w>
ten ían</w>
As istencia</w>
at z
commun es</w>
analy ses</w>
desplaz ados</w>
sé v
Ira q
ate lier</w>
esper anza</w>
F aso</w>
i ement</w>
sob re
work shops</w>
he im</w>
e den</w>
n ur
realiz ada</w>
aper tura</w>
am ar
comport ement</w>
bo und</w>
for get</w>
Ro oms</w>
d ation</w>
ven til
Hy po
graf ía</w>
budgéta ire</w>
éta ire</w>
atori as</w>
prim ero</w>
deten idos</w>
ten us</w>
S au
ca .</w>
w -
G ele
Pr ü
larg ely</w>
lev ée</w>
s tic
epi demi
Gä ste
partici par
res se</w>
Egyp t</w>
ari al</w>
numer osas</w>
1 30</w>
er le
Proje kt</w>
é lar
IS I
examin ed</w>
ati </w>
so- called</w>
Habit at</w>
gro ss
Auf enth
voy age</w>
ru h
so fort</w>
I F</w>
Ges etz
Inv est
re b
gre ifen</w>
médic os</w>
comment aires</w>
realiz ó</w>
Stre et</w>
Sain t</w>
horiz on
agr icole</w>
du ties</w>
ci da</w>
Sci ence</w>
PARTICUL ARS</w>
institu ción</w>
st eig
verbun den</w>
form en</w>
ent lichen</w>
cor ps</w>
Recom end
fre u
Ac ade
tend encia</w>
ver kehr
as che</w>
Re is
bas a</w>
Coun tries</w>
ar ity</w>
M ess
cuesti on
Baj os</w>
destin ados</w>
correspon ding</w>
Er n
Presu puesto</w>
J efe</w>
Con tin
ä s
outi ls</w>
E reign
O t
loc ale</w>
Train ing</w>
ag ré
o ts</w>
z ul
o cho</w>
Regi onen</w>
MIN U
ho gar</w>
rich tig</w>
schließ end</w>
expir y</w>
train ed</w>
sig lo</w>
numer osos</w>
aé ro
men aces</w>
Mi x
val oir</w>
conduc ta</w>
of -
ét ape</w>
cu br
n issen</w>
mani pul
raf t
administr ativas</w>
logi ci
def ec
ma ison</w>
tig es</w>
b isher</w>
sec ret</w>
ur al</w>
enti dad</w>
cambi ar</w>
Supre me</w>
d ens</w>
modu le</w>
rubri que</w>
Q UE</w>
tr é
ST A</w>
é sie</w>
Ver änder
pré limin
Kin dern</w>
Stat ut</w>
r ac
appe arance</w>
N ami
war ning</w>
M ou
we g
it ment</w>
tr ig
tion ed</w>
bil aterales</w>
in admis
res istance</w>
respectiv amente</w>
Col lege</w>
mo ved</w>
low -
t schen</w>
emerg ing</w>
Arzneimit tels</w>
recru tement</w>
s ement</w>
Mitarbe iter</w>
de a
Johann es
k lu
Ch em
phen omen
ci to</w>
n y</w>
vo ice</w>
e ter
pro voc
ili </w>
représent ation</w>
w an</w>
tex ts</w>
dur ad
E ti
W ik
Apo yo</w>
high- level</w>
an z</w>
em isiones</w>
Bei trag</w>
or ph
toxici ty</w>
I l
ür f
im pression</w>
ológ icos</w>
est y</w>
inform ieren</w>
sou thern</w>
tr aum</w>
conn exes</w>
mein en</w>
Par agrap
arbe itung</w>
1 60</w>
cli entes</w>
dossi er</w>
clo ser</w>
Al ex
deb ían</w>
acc eler
gast ro
inter face</w>
expl ained</w>
scol aire</w>
cen nie</w>
bre chen</w>
el se</w>
effic acy</w>
spaci ous</w>
R io</w>
trouver a</w>
entwick eln</w>
glob alization</w>
tri ed</w>
kom ple
adver ti
enti èrement</w>
particip ant</w>
Coordin ation</w>
vis its</w>
colon i
vic tim</w>
o th</w>
wer te</w>
f te</w>
Est atuto</w>
pé tro
J av
farm ac
dic t
viol ences</w>
ho hen</w>
preocup aciones</w>
sé jour</w>
ann onc
sek ret
ar la</w>
Turk ish</w>
ä re</w>
Nor v
lig nes</w>
is ,</w>
S ist
invest ments</w>
stat u
ré mun
ro up
divi ded</w>
cl ini
D op
happ en</w>
ce ci</w>
N um
res titu
st one</w>
scienti fiques</w>
rei ben</w>
ti me
e té</w>
B asi
coopér er</w>
benö tigen</w>
eng ine</w>
tr ate</w>
gesam te</w>
verständ lich</w>
aten der</w>
PI B</w>
cad res</w>
qu en</w>
an ce
continu ation</w>
prest ations</w>
l aid</w>
M AN
Coordin ación</w>
e ter</w>
he aring</w>
considér er</w>
br ind
atten d
Nor uega</w>
tradi ción</w>
tain ment</w>
Fre e</w>
municip al</w>
aliz e</w>
emphasi zed</w>
ch l
priv és</w>
Congres s</w>
ger y</w>
bu tton</w>
determin ados</w>
di vor
évalu ations</w>
k id
T D</w>
ü st
Ver anstal
mas a</w>
no ter</w>
prote in</w>
communi quer</w>
arm ées</w>
vi ve</w>
bien- être</w>
C ast
estre cha</w>
finan ces</w>
pour ront</w>
be ds</w>
pr ensa</w>
gan gen</w>
L abor
c av
con cours</w>
tuvi eron</w>
P ide</w>
re affir
y cl
assu me</w>
territori es</w>
bat ch</w>
sh ar
relie ve</w>
ver hin
ac ute</w>
pp ing</w>
trabaj an</w>
1 11</w>
I denti
St abil
ases in
ca de</w>
Proto kol
le h
aff ili
integr ity</w>
ech ten
gan genen</w>
Su ecia</w>
mes as</w>
ol anz
aux quelles</w>
jud ge</w>
squ are</w>
déplo iement</w>
Human it
f il</w>
for th
col um
P eg
révis é</w>
progres sive</w>
s land</w>
dam es</w>
d al</w>
star k</w>
W ert</w>
sist ance</w>
E gip
es enciales</w>
N ieder
empfoh len</w>
therapeu tic</w>
po or
un acceptable</w>
Rec ursos</w>
re peti
pris ons</w>
Ad junto</w>
fe ar</w>
G leich
Trans par
ti eth</w>
O ut
Ver tre
ofi -
Erklär ung</w>
prelimin ary</w>
aplic able</w>
em iti
liss ement</w>
dis play</w>
tr uly</w>
estableci ó</w>
Gre en</w>
W illi
g y
suministr o</w>
über zeu
sta de</w>
cle arance</w>
consci ente</w>
contr acep
lan gen</w>
E thiop
des ire</w>
est ate</w>
as ,</w>
handl ing</w>
ret ard</w>
Abgeord neten</w>
distric ts</w>
Be wer
abl ing</w>
sch ul
conclu ding</w>
obvi ously</w>
mo tor</w>
bo und
oblig atoire</w>
Públic a</w>
ri ft</w>
T ext</w>
hei ßt</w>
cap su
if e</w>
Mes sieurs</w>
Segun da</w>
minu tos</w>
D as</w>
e za</w>
su m</w>
consommat eurs</w>
H RC</w>
espagno l</w>
mach in
Re publi
install ed</w>
CO 2</w>
pro che</w>
pro mu
intér im</w>
competi tiveness</w>
bestimm te</w>
H um
tion ary</w>
B I
Fif th</w>
ne o</w>
oth i
' ll</w>
tr end</w>
µ g</w>
reg im
au str
fel low</w>
enz y
M -
trans mitted</w>
pleas ant</w>
Erfahr ung</w>
gr ant</w>
vis a</w>
oc cid
au- delà</w>
You goslav
dem ic</w>
conting ents</w>
Berich ts</w>
straté giques</w>
198 2</w>
des ech
conn u</w>
uv o</w>
ele gan
Pop ulation</w>
correspon dant</w>
pharmaco kin
W ol
dis chen</w>
n ée</w>
Kaz akh
v istas</w>
utiliz ando</w>
tro ffen</w>
transpar ente</w>
Kom bination</w>
s ar</w>
P ur
Autor ité</w>
Presid ent-
experim ent
B ol
it z</w>
Ob jec
wichtig sten</w>
inde x</w>
1 6.
M ais</w>
i ting</w>
Is land</w>
las ting</w>
198 1</w>
législ atives</w>
present ados</w>
Sy mptom
Lim ited</w>
Li echten
S C
Egip to</w>
Yougoslav ie</w>
handicap ées</w>
certi fication</w>
Tr in
tar de</w>
A ses
procès- verbal</w>
expres ses</w>
établi e</w>
H OL
Angebo t</w>
Frank fur
min dest
ho tel
premi ers</w>
ethni ques</w>
que o</w>
sen ior</w>
Estrategi a</w>
aliment aria</w>
othi az
promul g
wr ong</w>
Ad v
Ko weï
1 25</w>
inform er</w>
pedi do</w>
AU C</w>
eig ene</w>
aus reich
lad en</w>
h arm
lo ur
im pris
Polí tica</w>
pre- filled</w>
On tario</w>
dat en</w>
fourn it</w>
Re form</w>
individu s</w>
emph as
br in
fr isti
for o</w>
supr ême</w>
exis ts</w>
pos si
opérationn elles</w>
só li
correc tions</w>
ythro po
enseign ements</w>
W A</w>
ín dice</w>
met tent</w>
Bar ro
rel ève</w>
consider ablemente</w>
w issenschaf
alo j
desp liegue</w>
15 .
do w</w>
me ines</w>
norm ally</w>
enc ing</w>
dis abled</w>
ra ch
sé p
peri ods</w>
et al</w>
liz ar</w>
J os
î tr
n one</w>
cl air</w>
navig ation</w>
H U
co hesion</w>
onn en</w>
il age</w>
min or</w>
CI ÓN</w>
professionn els</w>
re médi
mu sul
chang er</w>
Geb äu
convic tion</w>
precau tions</w>
Cul tural</w>
ow ner
apparten ant</w>
present an</w>
D y
cou p
op ciones</w>
prim eros</w>
ín dole</w>
î les</w>
w ob
the or
smo king</w>
Inst all
igu almente</w>
easi er</w>
R D</w>
f ill</w>
az ole</w>
mo iti
l te</w>
mindest ens</w>
trav ail
stim men</w>
bu y</w>
edi fici
destin ées</w>
de ten</w>
realiz adas</w>
ed or</w>
re tos</w>
F ili
Oper aciones</w>
b ús
t ative</w>
gen re</w>
sou th</w>
arri val</w>
asse z</w>
k al
Kazakh stan</w>
por tes</w>
adecu adas</w>
Mes ures</w>
acord ado</w>
commiss aire</w>
V ie
ent ale</w>
B ag
Z we
obten us</w>
Liechten stein</w>
tour ist</w>
év idence</w>
gr as
recru itment</w>
pos sibilities</w>
pro ven
olo gies</w>
Bezieh ungen</w>
pro u
ox y
van se</w>
rapp elle</w>
alre dedor</w>
abier to</w>
sy ner
pow der</w>
I -
sp end</w>
afric anos</w>
vol unte
ír vanse</w>
Bestand teile</w>
vi er
Erweiter ung</w>
collec ted</w>
esti ma</w>
ter res
Integr ation</w>
invol ves</w>
reconstruc ción</w>
Zeit punkt</w>
hon our</w>
Bevöl kerung</w>
ADMINIS TRA
chô mage</w>
en za</w>
M ech
gan ze</w>
s wit
f it</w>
Uz bek
Behör den</w>
moiti é</w>
usu arios</w>
exist ants</w>
restric ciones</w>
org ans</w>
Mar tin</w>
in- Office</w>
Forsch ung</w>
G ab
ré conciliation</w>
the ory</w>
Nu tzung</w>
so spe
phénom ène</w>
syn dic
M än
Wed n
Croati a</w>
à- dire</w>
r d</w>
decen io</w>
Mes dames</w>
D S</w>
spec tac
A C</w>
inten sive</w>
W hen</w>
Mon go
prest aciones</w>
com pañ
ter ri
Fis cal</w>
Wor t</w>
xi de</w>
hubi era</w>
sin c
preci sely</w>
premi ères</w>
Con di
zuneh men</w>
thro p</w>
sa isie</w>
üc ken</w>
Dur ban</w>
minist ros</w>
in et</w>
res tent</w>
abar ca</w>
Qu é</w>
continu ous</w>
dis charge</w>
est- à-dire</w>
conduc to</w>
asign ación</w>
Jam a
ich ts</w>
trater restre</w>
speak er</w>
gef ähr
trans formation</w>
al mac
S eh
er seits</w>
for th</w>
Änder ungen</w>
WG .
y ester
F äh
be achten</w>
plain te</w>
zahl reiche</w>
heav y</w>
comp tabil
C AR
r in
Ö ster
im migrants</w>
alp hab
represent an</w>
SB I</w>
cro is</w>
legitim ate</w>
olog ische</w>
decre ased</w>
ann ing</w>
sen sible</w>
E mp
i ka</w>
för dern</w>
ig es</w>
em an
í rit
Koweï t</w>
agradeci miento</w>
é b
affec ting</w>
best ä
so l</w>
Aus wahl</w>
P E
específic os</w>
an ischen</w>
Cham bre</w>
surro unding</w>
fün f</w>
g ül
lead s</w>
f assen</w>
intégr é</w>
öff net</w>
sp ap
créd itos</w>
tor tur
o di
posi tivos</w>
OC DE</w>
ent end</w>
de priv
ho gares</w>
H ist
Lie fer
terroris te</w>
T out</w>
ar m</w>
Is las</w>
as sum
evid ente</w>
4 5
ten den</w>
L iv
l ing
enh ancing</w>
E is
ta il
auth ors</w>
dis tor
soli d
équip es</w>
fournis seurs</w>
An forderungen</w>
chlor othiaz
super fici
wob ei</w>
Autor idad</w>
pursu e</w>
H T
Bil d</w>
Ch ad</w>
religi ón</w>
men su
of i</w>
tax es</w>
No tw
prév us</w>
sh el
O tros</w>
out comes</w>
hon or</w>
Su ède</w>
établi s</w>
v .</w>
Montre al</w>
gan zen</w>
0. 5</w>
te en</w>
ch ino
Sel b
The y</w>
II .
fa ther</w>
Let tre</w>
wach s
ti le</w>
Y ear</w>
ang le</w>
schließ en</w>
as en</w>
or en</w>
rè glements</w>
reib ung</w>
ar nos</w>
pres criptions</w>
it ores</w>
hä tte</w>
si zed</w>
cis m</w>
top ics</w>
er tos</w>
thro mbo
end o
considér ablement</w>
B ü
Win throp</w>
hol m</w>
alleg ed</w>
General sekret
demonstr ate</w>
suff ered</w>
acc é
observ adores</w>
rapid ly</w>
Rel at
sho wer</w>
3 7
Jah res</w>
Hin weise</w>
Kom muni
W erk
pack ages</w>
fourn iture</w>
oc ur
B ayer</w>
General versammlung</w>
conting entes</w>
prev istas</w>
posteri or</w>
nor ma</w>
Ter cera</w>
vou loir</w>
10 8</w>
adv antages</w>
pr ennent</w>
vra iment</w>
efec tivos</w>
UNI FEM</w>
fre quent</w>
k ap
reconna ît</w>
gehör en</w>
tra stor
export ations</w>
objec ts</w>
iz ar</w>
diplom atic</w>
av o</w>
Isl ámica</w>
qu arti
UNI TAR</w>
L O
St ation</w>
uv es</w>
w ants</w>
su puesto</w>
let ters</w>
Polic ía</w>
occ urs</w>
univers elle</w>
Inform ations
expl ore</w>
ob tenu</w>
dep th</w>
it í</w>
iv a</w>
clo sure</w>
l ou
1 40</w>
accid ent</w>
F eri
Com mon</w>
mag az
ci n</w>
all ed</w>
Wedn esday</w>
tr it
év olu
c ens
all -
s auf</w>
A B</w>
en os</w>
ve ter
hy si
graphi ques</w>
Entschließ ung</w>
govern ing</w>
To dos</w>
ér cito</w>
ap provisi
n ob
serv es</w>
verbesser n</w>
B ran
cr ania</w>
elabor ado</w>
n és</w>
sup plement
coun ter</w>
dr es</w>
B ri
it enti
démar che</w>
J ac
res ort</w>
ph on
pr êts</w>
best ehen</w>
contempor ary</w>
4 7
de vi
di fun
organis me</w>
S emin
histori que</w>
vis ited</w>
10 .</w>
ex acer
Zi el
diminu tion</w>
rou tes</w>
los ses</w>
élec tor
F i</w>
compét entes</w>
li qui
p .
ali tion</w>
meas ured</w>
str on
ate liers</w>
i ó</w>
interven ciones</w>
tro uvent</w>
dé si
per mit</w>
believ ed</w>
S onn
mag ni
TIV E</w>
D u</w>
G ast
adul tes</w>
Um gebung</w>
lis ts</w>
In de
a juste</w>
meille ures</w>
cht ung</w>
cuid ado</w>
Flug haf
- H
eign ty</w>
consenti miento</w>
rati o</w>
ac qui
b rain</w>
over come</w>
Po wer</w>
hel ps</w>
e ing</w>
habr á</w>
tom ó</w>
enjo y
ti fication</w>
ge funden</w>
Pla za</w>
integr idad</w>
ent schaft</w>
gew öh
dev ront</w>
attein te</w>
P ul
ad h
ent ement</w>
ver k
posi tiva</w>
verfü gen</w>
En gl
pré fér
er w
län dern</w>
st up
incl ure</w>
app endi
Tat sache</w>
qu iz
ár abe</w>
B undes
erne ut</w>
respectiv ement</w>
Af ter</w>
197 8</w>
P har
qu et</w>
h ung</w>
Gu ine
tam iento</w>
Me dia</w>
198 4</w>
depend s</w>
Recom mand
Stand ard</w>
Gesund heits
withdra wal</w>
s low
E quip
0, 5</w>
U crania</w>
muestr an</w>
B ad</w>
aci o</w>
vi es</w>
olog ischen</w>
ar in</w>
alis é</w>
parti dos</w>
Cá mara</w>
so le</w>
p uso</w>
Lor s
pi èces</w>
wel coming</w>
Notw en
w ider</w>
posi tivo</w>
oper ative</w>
k ir
rel ax</w>
dis k
vacc ination</w>
fédér ale</w>
Rob ert</w>
chl ori
criteri o</w>
di endo</w>
Hy per
olog ne</w>
reg roup
bri ef</w>
s elling</w>
gu ten</w>
consider arse</w>
hä re</w>
CE E</w>
re tras
ho he</w>
posi t</w>
Sou th-
réc ente</w>
w and
tam poco</w>
l ity</w>
írit u</w>
remédi er</w>
ous ness</w>
G eld</w>
Beg inn</w>
cl ause</w>
ran g</w>
du plic
Ver ordnung</w>
Techn ical</w>
ungs -</w>
d ados</w>
r aum</w>
gen oci
som met</w>
Norv ège</w>
pr esta</w>
alcan zado</w>
quar ante-
bestimm ten</w>
en ia</w>
crí menes</w>
er möglichen</w>
sol di
Com mer
ensay os</w>
hu bo</w>
tab led</w>
p d
schedu le</w>
in fusion</w>
anti gu
Fun ktion</w>
zah len</w>
id ers</w>
L iss
gén eros</w>
apr endi
um b
cham p</w>
Direc ción</w>
cam p</w>
t í
aj as</w>
Jos é</w>
fol ge</w>
A PP
Aktiv itäten</w>
Do wn
se at</w>
SB STA</w>
co des</w>
tradi tions</w>
En fin</w>
4 8
des g
el ine</w>
second aire</w>
di lu
Schw anger
estr o</w>
s auv
aprob ar</w>
effectu é</w>
fédér al</w>
direc teurs</w>
candi date</w>
accor dée</w>
dé libér
kil ome
proce ed</w>
esper amos</w>
ci os</w>
fic aciones</w>
G on
fu tures</w>
yester day</w>
Y o
system atic</w>
incid ent</w>
pag os</w>
plat form</w>
exemp les</w>
figh ting</w>
futur as</w>
Her zen</w>
ar ising</w>
man os</w>
unilat eral</w>
organ isi
est atales</w>
refr iger
Pers ons</w>
bewer tungen</w>
iv il
po dido</w>
hypo glycaemia</w>
en abling</w>
d lichen</w>
bús queda</w>
e es</w>
nati ve</w>
R appelant</w>
migr ant</w>
flu x</w>
Territ ory</w>
argu ments</w>
coment arios</w>
ad j
syst eme</w>
Den mark</w>
res to</w>
constitu er</w>
produc ers</w>
ab eti
W ähr
P I</w>
20 10-
qualit ative</w>
tu m
Tro isième</w>
organis ées</w>
W AR
di gen</w>
y eron</w>
vi tro</w>
hy gi
U se</w>
solidar idad</w>
Kön ig
PAC K
prov ed</w>
Económ icos</w>
in aug
us st</w>
wonder ful</w>
racis m</w>
Dé ci
ne um
comm only</w>
aug ht</w>
President- in-Office</w>
inter gubernamentales</w>
identi dad</w>
ég al</w>
st eu
sex to</w>
den noch</w>
intitul ée</w>
adress ées</w>
comp il
A in
Moz ambi
L y
compar able</w>
carg os</w>
destin adas</w>
intellec tual</w>
owner ship</w>
Au ff
ar las</w>
ar z
Che f</w>
utilis ée</w>
V -
Argen tine</w>
A z
Govern ing</w>
Liss ab
mo stly</w>
cust oms</w>
Famili e</w>
Hon duras</w>
éché ant</w>
c el</w>
z ieren</w>
alum nos</w>
tiv ement</w>
B C</w>
Y ou</w>
B S
ic als</w>
économ ies</w>
pre domin
indemn isation</w>
3 3
ten ues</w>
inter ess
mil k</w>
ét ats</w>
tip les</w>
in tr
sover eignty</w>
psych ological</w>
to urs</w>
k op
We ap
G I
paci fique</w>
re ver
Ch air</w>
For mul
tec ed
re di</w>
s sions</w>
cher ch
G as
dépu tés</w>
br and</w>
écl air
laun ch</w>
di ez</w>
j ap
relativ ement</w>
gobern anza</w>
bour g</w>
o o</w>
sion s
wirtschaf tliche</w>
Mob il
cal cu
t ando</w>
i rement</w>
tend ant</w>
mis mas</w>
Stand ards</w>
kit chen</w>
tri b
or ateur</w>
present adas</w>
kur z
équi libre</w>
res ter</w>
víctim a</w>
# </w>
essenti elle</w>
tissu e</w>
sust ancias</w>
ch ro
Som alie</w>
p ier
su ces
dis asters</w>
ici o</w>
simil ares</w>
B ir
ad r
coff ee</w>
recogni zing</w>
v aste</w>
Vereinig ten</w>
C ali
är en</w>
ex pen
hin zu
equilibri o</w>
HOL DER</w>
s ory</w>
PA R</w>
tradi tion
Ge wal
surviv al</w>
St är
pes o</w>
S at
ev it
comp ul
M ar</w>
ta ient</w>
völ lig</w>
alis mo</w>
ap porté</w>
under stood</w>
Mozambi que</w>
pren antes</w>
mu til
ment os</w>
cier tas</w>
baj a</w>
w ro
trabaj ando</w>
a part</w>
ail s</w>
co gni
t onnes</w>
Docu ment</w>
cl ô
care er</w>
communi qué</w>
protoco l</w>
minis teri
vic time</w>
atta ques</w>
transfer red</w>
str ug
flow s</w>
rif ten</w>
accep tance</w>
con que</w>
e y
agn ós
In fr
see ing</w>
B ien</w>
Notwen digkeit</w>
è nes</w>
Ac tu
v ase</w>
Est ab
ciud ades</w>
constr ain
4. 6</w>
Gäste bewertungen</w>
eign et</w>
sin cer
w able</w>
con tab
configur ation</w>
Kul tur
Z ei
Bes u
parti s</w>
H en
mer zen</w>
m ers</w>
schü tzen</w>
resum ed</w>
fu ego</w>
excep tional</w>
Gre ek</w>
su d</w>
Ap plication</w>
ein gesetzt</w>
h i</w>
mo t</w>
civ il
def ens
b att
serv ic
F .</w>
bl ement</w>
Jama ica</w>
den ken</w>
Pre vención</w>
inter medi
kur z</w>
st ory</w>
manufactur ing</w>
indic ar</w>
N I
ocasi ón</w>
F irm
Económ ica</w>
conven tional</w>
engag é</w>
emp los</w>
vor schriften</w>
consac rée</w>
bási ca</w>
Umwel t</w>
ethni que</w>
g h</w>
proporcion a</w>
hepati tis</w>
lab el</w>
wr ite</w>
evalu ated</w>
S onder
alle in</w>
Z ahl</w>
AN CE</w>
Inter nal</w>
réclam ations</w>
o vi
accoun ting</w>
vo tado</w>
Verbrau cher</w>
mid dle</w>
ráp idamente</w>
as si
10 1</w>
quer emos</w>
de par
tot ally</w>
win ter</w>
appreci ate</w>
pres que</w>
nation ality</w>
intellec tu
Gä ste</w>
aci n</w>
Record ando</w>
autó nom
intégr ité</w>
le tzt</w>
sam ple</w>
adecu ados</w>
S G</w>
A t</w>
fe eling</w>
is ant</w>
b onnes</w>
administr ativos</w>
effec tif</w>
Arzneimit teln</w>
tro tz</w>
bre ast
al tar</w>
sm aller</w>
Tür kei</w>
y le</w>
ver urs
est atuto</w>
su ce
è lement</w>
effectu er</w>
ag ner</w>
leg t</w>
lec ture</w>
dispos er</w>
vi vent</w>
V ari
I ris
O pen
bo ok
1. 000</w>
viv ant</w>
tats ächlich</w>
ell s</w>
de partment</w>
infer ior</w>
appli quées</w>
hervor rag
parame ters</w>
pos sibles</w>
pi ece</w>
bos ques</w>
some one</w>
ver pflich
suppli es</w>
év ision</w>
utilis ateurs</w>
imi entos</w>
f .</w>
- related</w>
réalis é</w>
diver se</w>
rem placer</w>
T ous</w>
encamin adas</w>
P N
A sh
1, 5</w>
end ro
De puty</w>
facil ity</w>
hom es</w>
wün schen</w>
Hai ti</w>
determin ado</w>
accep ter</w>
he adquarters</w>
Dar four</w>
lic ence</w>
Minis terial</w>
T agen</w>
up per</w>
he ar
amp leur</w>
col as</w>
g ap</w>
lu i-même</w>
par ler</w>
red it
enfr ent
no table</w>
H ay</w>
r ons</w>
id ées</w>
palestini enne</w>
1 12</w>
Arab ia</w>
reconna ître</w>
er inner
afec tan</w>
t licher</w>
imp acto</w>
c los</w>
produ cido</w>
acqu is</w>
dig it
T ar
M ur
cou ple</w>
op ía</w>
w est</w>
as signed</w>
cultur elle</w>
200 7-
üss el
In fe
le ver</w>
Res olución</w>
Moroc co</w>
ch ungen</w>
orden ación</w>
ADMINISTRA TION</w>
mal heureusement</w>
ent endre</w>
múl tiples</w>
esp íritu</w>
dre w</w>
Ac cord
produc ing</w>
É gyp
am in
ér ap
an gen
Ib íd</w>
arres t</w>
zei chen</w>
acti fs</w>
racis mo</w>
visit as</w>
Apo the
N iv
const ate</w>
frau de</w>
ab road</w>
occup é</w>
ré sumé</w>
f eld</w>
G ri
sozi ale</w>
Indon ésie</w>
D IC
6. 3</w>
groß er</w>
draf ting</w>
dej ar</w>
ten go</w>
meto d
eu x-
pres ents</w>
e ase</w>
parall el</w>
mejor as</w>
reconci liation</w>
Woh n
inv ita</w>
ac a</w>
hac erse</w>
3 A
direc te</w>
schrif tlich</w>
aud itoría</w>
op ción</w>
Sir ia</w>
¡ </w>
pron to</w>
cicl o</w>
an genommen</w>
auf treten</w>
in sufficient</w>
ail and</w>
ri ver</w>
hop ed</w>
re placed</w>
bie te</w>
forth coming</w>
anges ichts</w>
P L
utili za</w>
répon du</w>
énonc és</w>
Zel andia</w>
U ti
ausgest attet</w>
Stock holm</w>
modi fié</w>
dign ity</w>
enti s</w>
o a</w>
protoco le</w>
Her stellung</w>
moder ate</w>
étudi ants</w>
œ ur</w>
D oc
mat ely</w>
US E</w>
ejer cer</w>
C. 6</w>
export aciones</w>
Gesund heit</w>
10 6</w>
O ce
Posi tion</w>
su d
accr ue</w>
l le
197 9</w>
distinc t</w>
limit er</w>
Ho wever,</w>
sol chen</w>
t elecom
Fuer za</w>
es c
5 7
ocu par
ON ES</w>
Mo un
DRO ITS</w>
10 3</w>
eleg ant</w>
su pone</w>
m ó
evalu ate</w>
vacc ine</w>
s ligh
limit aciones</w>
zwe iten</w>
é colo
tis ation</w>
pil ot</w>
complain t</w>
geo graphical</w>
Ne ws</w>
im pe
ec os</w>
hon neur</w>
tenden cias</w>
é di
o la</w>
proce dentes</w>
présid ents</w>
cier tos</w>
Relat ora</w>
mobili zation</w>
incorpor ación</w>
H and</w>
Stru ktur
de uti
Th emen</w>
difficul ty</w>
M ul
B ase</w>
actu elles</w>
win dow</w>
is és</w>
ag a</w>
ativ amente</w>
auf genommen</w>
expan ded</w>
an alo
s li
em ark</w>
Wettbewer bs
län ger
anti ème</w>
poten cial</w>
he uti
europé ennes</w>
tane ously</w>
bl in
di agnós
ob servers</w>
médic a</w>
commerci aux</w>
res erve</w>
juici os</w>
im al</w>
form ar</w>
2000- 2001</w>
pen ales</w>
kr imin
mod alidades</w>
Est adís
li ke
po cos</w>
entendi miento</w>
sch eme</w>
encarg ados</w>
conten ant</w>
rap portant</w>
J es
new ly</w>
igh t
desp leg
soci edades</w>
ber g
argu ment</w>
G eh
Iris h</w>
Cam er
remo te</w>
Exper ts</w>
d less</w>
ständi g</w>
disk uti
reci ben</w>
n ö
Handel s
gro ss</w>
Aprob ación</w>
ign ant</w>
estudi ar</w>
führ ten</w>
über sch
Sp a</w>
examin ando</w>
identi fier</w>
lan tic</w>
RO M</w>
intéress és</w>
cultur el</w>
ac ad
In clu
al eg
k en
fon dé</w>
Fortschrit te</w>
dea ths</w>
té moins</w>
brief ing</w>
ráp ida</w>
kre ich</w>
co ast
subsidi ary</w>
Cep endant</w>
great ly</w>
äu me</w>
f um
le aving</w>
Palestini ens</w>
ser um</w>
cu á
capit ale</w>
Bar b
reg ret</w>
export ation</w>
de ep
fre ien</w>
propi as</w>
A ri
e do</w>
4 50</w>
down lo
gol f</w>
berich tet</w>
mein em</w>
confirm ation</w>
Mitgli ed</w>
Mon aten</w>
achiev ements</w>
fas hi
pre ad</w>
ol -
alis és</w>
dr á</w>
de cl
es- ci</w>
préal able</w>
sti eg</w>
rev ision</w>
depen de</w>
C S</w>
Am n
aff ich
es es</w>
ch in
catastro phe</w>
urg ed</w>
5 8
prepar ations</w>
tal ks</w>
car s</w>
es pero</w>
bre ve</w>
port és</w>
verg essen</w>
Égyp te</w>
Armen ia</w>
M ain</w>
pro of</w>
- cadre</w>
cop ie</w>
priv acy</w>
UNID O</w>
élev és</w>
négoci ation</w>
arti ge</w>
er weiter
ili dad</w>
pes ca</w>
minis tre</w>
o ce
déf i</w>
Gele genheit</w>
pour suites</w>
doc tr
ce ux-
ej emplos</w>
Com unic
tox ic
pos session</w>
fondament al</w>
em e
annu elle</w>
ocup ado</w>
Conven tions</w>
Ju li</w>
am az
Kin der
vi l</w>
RE CH
T ec
h ü
phenomen on</w>
Pri e</w>
near by</w>
dispon ibilidad</w>
An d</w>
PNU MA</w>
le is
restric ted</w>
nah e</w>
legisl ativas</w>
is ons</w>
pen sions</w>
and -
mer ely</w>
what ever</w>
Mar ke
he ads</w>
Eti opía</w>
dé cre
dec ades</w>
indic ates</w>
ger e
ov as
natur ally</w>
sum amente</w>
bo urs
Ch y
CR P.
enorm ous</w>
ah ren
bar r
am as</w>
recibi ó</w>
Kon zep
ver suchen</w>
IC H
n ings</w>
p es</w>
15 -
organis mo</w>
Mon ate</w>
hy pers
Co opération</w>
Sch affung</w>
197 3</w>
diagno sis</w>
Ã </w>
provin cial</w>
N ou
serv ing</w>
l ay
orient ations</w>
S ir</w>
G .</w>
en as</w>
conjun tamente</w>
St ell
Syri an</w>
D IS
V ill
ver me
appl ying</w>
dom és
au dio</w>
Str af
mean ing
commun s</w>
re don
mix ed</w>
gewähr leisten</w>
Durch führung</w>
St elle</w>
én dose</w>
Minist ros</w>
inter ro
organiz ada</w>
sour cen</w>
tercer os</w>
er ster</w>
deu tsch
com po
recon ocer</w>
form ule</w>
dise ño</w>
Ver gleich</w>
attemp ts</w>
prof lox
as sign
four nies</w>
depend ence</w>
integr ada</w>
Mär z</w>
Bestimm ungen</w>
ma ster</w>
fri ed
In c</w>
1, 000</w>
Me er</w>
Gi pf
indic ó</w>
o wing</w>
absor ption</w>
compar ison</w>
meil leurs</w>
ad y</w>
en rol
en em
tr ice</w>
Be kä
campag nes</w>
p ese</w>
gewöh n
an ud
ib íd</w>
étro itement</w>
TE N
aw i</w>
F ig
d oble</w>
ein deuti
Pack ungsbe
3 .1</w>
WP. 29</w>
fabric ation</w>
culo sis</w>
benefici o</w>
counter -
v ont</w>
explan ation</w>
enseign ants</w>
nor ms</w>
Guine a-
dirig idas</w>
t ested</w>
idi oma</w>
K örper
sci ences</w>
constitu tes</w>
l la</w>
cultur elles</w>
desempe ño</w>
ra y</w>
en juici
convain cu
regar ded</w>
resi du
Kr ise</w>
sig ne</w>
on ,</w>
wid es
Prosecu tor</w>
calend ario</w>
PACK AG
des i
israel í</w>
zwe ite</w>
happ ened</w>
T ha
en unci
t age</w>
sustain ability</w>
Li br
c ant
Fran kreich</w>
be h
un mittel
Add. 2</w>
f un</w>
nach dem</w>
ag as
fre e
T ay
cri tique</w>
fun ktion</w>
men o</w>
geb aut</w>
M ut
vín culos</w>
potenti el</w>
campaign s</w>
E M
Strat é
conserv ación</w>
expec tations</w>
act ú
n ä
6. 6</w>
touch és</w>
determin adas</w>
employ er</w>
g one</w>
Fer tig
perspec tivas</w>
re production</w>
An fang</w>
Packungsbe ilage</w>
f light</w>
PNU E</w>
Ha ití</w>
E qu
4 6
orient ed</w>
á bit
Sci enti
com préhen
Fir ma</w>
care ful</w>
sicher heit</w>
superi ores</w>
ter in</w>
Bekä mpfung</w>
zeu ge</w>
Frankfur t</w>
mand ates</w>
ou bli
rév él
al ter</w>
sch ön
Fr on
el o</w>
export ación</w>
produ ire</w>
besch äf
Kenn tnis</w>
R ad
magistr ados</w>
äußer st</w>
ich ten</w>
est en</w>
Iraq i</w>
uni ver
1. 3</w>
län der</w>
Pro ces
Lu ft
viol ent</w>
rappel er</w>
estim aciones</w>
üss el</w>
Sah ara</w>
tr ente-
197 0</w>
fac teur</w>
dipu tados</w>
llev ado</w>
en mend
Oper ations</w>
constat é</w>
Erfahr ungen</w>
men sch
agrade cer
excep ción</w>
Str and</w>
200 5-
iri ya</w>
beli eb
P ár
ME R
ör per</w>
be ide</w>
Mac edonia</w>
gluco se</w>
lo ts</w>
IN TER
der t</w>
abor der</w>
qui ere</w>
b aisse</w>
cir cu
ac re
re anud
sin dic
awar ded</w>
transport ation</w>
vor zu
vollständi g</w>
prim e</w>
Г </w>
Guinea- Bissau</w>
repe ated</w>
alisi ert</w>
sexu ales</w>
program ming</w>
Au to
sol d</w>
g ather
b at</w>
S D
vari able</w>
algun o</w>
tempor al</w>
en des</w>
erk ennen</w>
ü sse</w>
O x
K ultur</w>
s ang
iss ait</w>
erfol gt</w>
nor d</w>
Industri e</w>
législ atif</w>
tour isme</w>
acade mic</w>
de partments</w>
Jam ah
vic e-
incom be</w>
comport amiento</w>
á ticamente</w>
élarg issement</w>
mauv ais</w>
perpe trat
regar dless</w>
Verein bar
terres tres</w>
stoff e</w>
' re</w>
wh il
testi gos</w>
frecu entes</w>
appropri ée</w>
indépend ante</w>
3 2
Über wach
col egas</w>
Eigen schaften</w>
Re fu
g ünsti
h em
intim id
bil d
v idé
es h
ofrec en</w>
inter dit</w>
te dly</w>
gener ated</w>
Hy dro
loo ked</w>
Organis ationen</w>
Luxemb ur
Haut- Commissariat</w>
out put</w>
Sen egal</w>
ach at</w>
jou é</w>
des empleo</w>
CH R</w>
environ ment
ex penses</w>
W ahr
appel é</w>
G é
re min
indemn ité</w>
Regul ations</w>
sit z</w>
H inter
mont ants</w>
mo des</w>
b ag
SQ L</w>
ig t</w>
déc ès</w>
sch utz</w>
Jamah iriya</w>
respec ted</w>
eingesch rän
pu tting</w>
accur ate</w>
fau dra</w>
soci eties</w>
H aï
desech os</w>
ré jou
no w
Gu est</w>
in put</w>
par ent</w>
b auen</w>
défici t</w>
occ asi
e astern</w>
i o
Spr ache</w>
simil arly</w>
po ids</w>
Proz ess</w>
ceux- ci</w>
Pun kte</w>
expos és</w>
on y
periódic os</w>
gi ó</w>
drück lich</w>
my self</w>
an es
B E</w>
continú a</w>
dy s
appli quent</w>
perman ents</w>
in i</w>
zusätz lich</w>
ver stehen</w>
ap es</w>
C S
octro i</w>
é man
reconci liación</w>
h ec
ci dos</w>
oppos ed</w>
qu ez</w>
tran sit
An spr
conf isc
h ence</w>
Ok tober</w>
non- proliferation</w>
grup pen</w>
B ef
mög lichkeiten</w>
pág s.</w>
8 0
men s</w>
en l
thir ty-
Vor aus
Tu esday</w>
br ings</w>
plante a</w>
particip an</w>
const antly</w>
kin ds</w>
aplic ables</w>
over view</w>
sol dats</w>
alu min
ingredi ents</w>
3. 2</w>
pas ar</w>
di ent</w>
souhait ent</w>
teced entes</w>
tendr án</w>
M ün
bo t</w>
équip ements</w>
zi p</w>
DE RECH
P os
F ax</w>
ré insertion</w>
tom ando</w>
inst all</w>
einz ig
W ahl</w>
pres cribed</w>
particuli ères</w>
Raci al</w>
attr actions</w>
reflec ts</w>
in adequate</w>
S port
m '</w>
L auf
ev ol
impl ant
mou vement</w>
Durch stech
di aly
k ürz
bi blio
nor th</w>
ts w
C C</w>
celebr adas</w>
Wor k
ff s</w>
actu els</w>
wides pread</w>
st ers</w>
sur gery</w>
medi um</w>
P- 5</w>
A V
Re d
2. 3</w>
An g
in duc
agrí cola</w>
le dig
en um
Sist ema</w>
Eff ec
sett l
inv asion</w>
u ß</w>
complé mentaires</w>
Ré solution</w>
olanz apine</w>
trans action</w>
tot alement</w>
ç u</w>
Kü che</w>
TÉ </w>
hör en</w>
it aires</w>
des tru
entr er</w>
al istas</w>
pend ing</w>
on ic</w>
Dis tribu
per ce
suff er</w>
le ,</w>
Austr ali
ra í
respe tar</w>
her z
A F
high light</w>
sol ve</w>
ap parti
present aron</w>
Schl ussel
refer ences</w>
le u
sou lev
Phar ma
certa ine</w>
Su peri
detal les</w>
sp un
furn ished</w>
cy cl
A U</w>
1 16</w>
Barro so</w>
mar qu
grund le
1 1.</w>
Ini ci
pa que
atr ice</w>
nor thern</w>
se h
pos s
ins crit</w>
is o</w>
refle ja</w>
äu ß
gen au
musul man
Pár raf
co inci
In sel</w>
Weap ons</w>
setz ungen</w>
è tement</w>
Pre ise</w>
hab l
rem bours
T P</w>
recti fications</w>
las si
a tre</w>
ten imiento</w>
anci ent</w>
dro gue</w>
concl ure</w>
poli ci
k el
5 00
negoci ación</w>
préci se</w>
spezi f
frau d</w>
em pris
10 2</w>
Activ idades</w>
th èmes</w>
ma îtr
aprob adas</w>
cré di
St or
pens ons</w>
Tri bun
c ann
dis cursos</w>
N atur</w>
er warten</w>
fo undation</w>
H un
col or
no ven
sous- programme</w>
veri ficación</w>
soli d</w>
paci ente</w>
e ply</w>
prépar er</w>
compl exe</w>
exist ent</w>
An nu
s we
tu m</w>
Envir on
ge zeigt</w>
ev o</w>
solici tar</w>
st ä
per s</w>
r ent
cha î
Mar kt
Enter prise</w>
insuffis ance</w>
per mitted</w>
iss ante</w>
rus se</w>
Char les</w>
Mal ay
Colom bie</w>
ledig lich</w>
lux uri
pendi ente</w>
sel l</w>
br ingt</w>
Gesam t
pré voir</w>
ter en</w>
abo gado</w>
pro hí
realiz a</w>
Mon itor
vol len</w>
it enci
il las</w>
inv ites</w>
puis que</w>
ab uso</w>
SI DE
bat ter
Dom in
fáci l</w>
in c
sy l
dé tru
géo graphique</w>
explo it
E mer
IL O</w>
ges ellschaft</w>
enti ss
198 3</w>
V ier
y right</w>
al fa
inici ar</w>
In dic
C M
pe ten
3 9
w illing</w>
ac um
ch ain</w>
belie f</w>
pré server</w>
scol ar
ain eté</w>
gel ö
minist ère</w>
mer idi
condi tioning</w>
where as</w>
pre uves</w>
c lic
associ és</w>
Wech sel
relation ships</w>
sem ination</w>
fo ot</w>
k tive</w>
qui pe</w>
ab zu
máxim a</w>
EC I
Tel ef
E sa</w>
Afr ic
aliment aires</w>
ran k</w>
correspon d</w>
emp feh
ten sions</w>
Sch wer
super ar</w>
iv ed</w>
compos ed</w>
Brit ain</w>
infec ted</w>
souha iter
afec tadas</w>
ID B.
S cript</w>
coun ts</w>
fi ants</w>
neu f</w>
Ein führung</w>
G U
V öl
migr ations</w>
Bah n
ordin ary</w>
hab ido</w>
verb ind
rel ess</w>
D onn
cu mp
Psy ch
bar s</w>
il en</w>
tur ned</w>
ar te</w>
testi mon
dra wing</w>
CNU D
I mp
an se</w>
dép it</w>
d able</w>
lim ité</w>
presid ent</w>
I L</w>
Sal z
inter nacion
attr active</w>
i ficación</w>
Frühstü ck</w>
pa tr
an gen</w>
circul ación</w>
res sorti
aux ili
zi eht</w>
mé dec
St ar
préci ser</w>
er zeu
Kommiss arin</w>
humanit arias</w>
nucle ar-
éri eur
sta g</w>
c ado</w>
our ces</w>
Produ ktion</w>
long -
H all</w>
Refu ge
civi liz
af for
sho wing</w>
preven tive</w>
com place</w>
pres s
incre mento</w>
spon sor
Des ign
Ag ent
entw ickl
illici tes</w>
bloc k</w>
Im mun
S ource</w>
m ages</w>
dis semination</w>
déta il</w>
veh ículos</w>
entsprech enden</w>
poten ci
ta -
Durchstech fl
arti cul
H. E.</w>
electrón ica</w>
jour nal</w>
Di alog</w>
Lib éria</w>
intraven ous</w>
F estival</w>
1 22</w>
den uncia</w>
comp ag
pap ers</w>
centr ales</w>
col oc
exclu ded</w>
gewi esen</w>
remar ks</w>
dispos ent</w>
prest ando</w>
expres sément</w>
Ain si</w>
ver kehr</w>
W ater</w>
préci s</w>
pod ían</w>
agrí colas</w>
dur ables</w>
ré ception</w>
en rich
pic tures</w>
G E
ET ING</w>
TE S</w>
fuer te</w>
et z</w>
Re zep
scol aires</w>
mencion ado</w>
toler ance</w>
proce de</w>
Stad t
- à-
Mech anis
design ated</w>
re prises</w>
D im
hag an</w>
ba ï
organis ed</w>
Premi ère</w>
ge win
hab lar</w>
sur ve
exclusi vely</w>
f an</w>
mo glob
stud ent</w>
leg ítim
ur en</w>
Consi der
ev es</w>
resid encia</w>
An ton
5 5
appropri é</w>
li ée</w>
sensibi lización</w>
AD S</w>
cor ro</w>
modu les</w>
Op ti
efici ente</w>
10 4</w>
Thom as</w>
fenó meno</w>
Kon fli
reg las</w>
tou ch</w>
é do
ze iten</w>
V an</w>
Boli via</w>
albu m</w>
Ir besartan</w>
er hi
sligh tly</w>
ma d</w>
fer ro
primor dial</w>
échel on</w>
arres ted</w>
cour ir</w>
anci en</w>
des erti
clô ture</w>
de eply</w>
dev ast
ge -
ro ug
sigui ó</w>
An streng
Vorsch riften</w>
dise ñ
palestini ens</w>
verfüg bar</w>
C ur
es clav
inter im</w>
ê ter</w>
o ti
tro ff
n au
multi ples</w>
fo und
me tro</w>
Auf merk
F ro
sober anía</w>
ab ud
pen as</w>
Rat sprä
197 5</w>
est ará</w>
prohib ited</w>
ac ab
achev é</w>
audi ence</w>
exp lique</w>
fr ame</w>
l anti
maxim ale</w>
Bil dung</w>
them atic</w>
Comp te</w>
int ent
particip ent</w>
wai ting</w>
Geor ge</w>
re ales</w>
vol ver</w>
Sk y
sch es</w>
ru b
tró leo</w>
S har
o is</w>
ak tivi
sub programa</w>
wen ige</w>
ap la
Selb st
R iver</w>
I hres</w>
sac ri
Partner ship</w>
anci es</w>
Amer ic
ex u
bénéfici aires</w>
b lich</w>
Indi an</w>
Communic ation</w>
XX I</w>
conse ill
l undi</w>
exist ente</w>
Polí ticos</w>
D RE
ob serve</w>
men ac
Con sen
Six ty-
fe atur
2, 5</w>
P ic
ac tor</w>
possi bly</w>
lin e-
k ri
compro mis</w>
a isl
conserv er</w>
Wirk samkeit</w>
D ut
re pu
r al
ges prochen</w>
pass ung</w>
vi o</w>
aliz ada</w>
Do sierung</w>
juri dic
res uel
bast ante</w>
én or
R aum</w>
diff us
ressorti ss
S ME
b y
selec ción</w>
eff ek
optim al</w>
selbst verständlich</w>
mand ats</w>
I G
Mar ru
univers ity</w>
n aciones</w>
auto ur</w>
Financi ación</w>
el -
k ein
tel ef
thè se</w>
li ti
ábit at</w>
Ein nahme</w>
év id
co ast</w>
rappel ant</w>
formul er</w>
V EN
Analy se</w>
comm ence</w>
expend itures</w>
Alban ia</w>
Jan uar</w>
expec t
wieder hol
LA S</w>
Promo ción</w>
whil st</w>
Bud get</w>
avanz ar</w>
exist antes</w>
dispu te</w>
lux ury</w>
expen sive</w>
w arm
inv asi
bure au
adap tación</w>
inici o</w>
N r.</w>
complain ant</w>
spati ales</w>
ST O
enor me</w>
anim ales</w>
ci bl
ad en
Discrimin ación</w>
er á</w>
vér it
trans fronter
Bulg ari
OI EA</w>
p in
á rea</w>
g érer</w>
endor sed</w>
Marru ecos</w>
obvi ous</w>
b el</w>
i ción</w>
néces sit
ar le</w>
allég ations</w>
dis semin
adquisi ción</w>
ann exes</w>
necess arily</w>
col d</w>
I B
consult ants</w>
dû ment</w>
na issance</w>
souver aineté</w>
spéci alistes</w>
am ong
travaill ent</w>
cell es-ci</w>
agg reg
ser t</w>
RO U
ci one</w>
adap ter</w>
conform es</w>
wi esen</w>
spe ech
freu en</w>
pén itenti
c œur</w>
Pho to
At mosp
ff er</w>
addres ses</w>
adverti sing</w>
Ar m
de te</w>
accep té</w>
17 .
perpe tr
tend ances</w>
An frage</w>
g end
is ée</w>
particul ares</w>
consumid ores</w>
mon ter</w>
rail way</w>
Lor d</w>
E CO
li f
funcion ario</w>
dis covered</w>
1 28</w>
acep table</w>
estu vi
pl a
re pos
correc tion</w>
constitu ted</w>
Cali for
agr ado</w>
6. 5</w>
z aje</w>
mobil ity</w>
ad visory</w>
ständi gen</w>
w .</w>
k lar
wro te</w>
dynam ique</w>
res sort</w>
félici tons</w>
col our</w>
lie genden</w>
ambi tious</w>
almac en
Masch inen</w>
pat ter
rach tens</w>
among st</w>
execu tion</w>
Ass ess
Terroris m</w>
E rachtens</w>
vois ins</w>
pro je
to wn
p -
independi entes</w>
incid encia</w>
Z él
especi es</w>
No vo
ber üh
espo ir</w>
compr ennent</w>
m ic
rene wable</w>
Proje kte</w>
M aria</w>
cre di</w>
O EC
A près</w>
un ten</w>
dig t</w>
ed y</w>
Inter ne
équip ement</w>
D S
ig o</w>
X -
Ap pe
plac é</w>
S ome</w>
permit a</w>
fi ables</w>
nutri ción</w>
mo tifs</w>
ex hi
acqui red</w>
tron om
arrang ement</w>
D inge</w>
cross- border</w>
4 4
reich ung</w>
vis és</w>
destac ar</w>
for ests</w>
no -
Intro ducción</w>
constitu é</w>
dé mo
po table</w>
ner n</w>
réc entes</w>
u me</w>
K unst
on ym
accé der</w>
Est udi
posi tifs</w>
trä gen</w>
Ko ordin
mit ting</w>
pleas ure</w>
preci se</w>
jou e</w>
Statis tics</w>
mati c</w>
Hin weis</w>
T ali
dan ke</w>
Fried ens
L itu
Nucle ar</w>
Ethiop ia</w>
ulti mately</w>
dis order</w>
exclusi v
j eron</w>
chac une</w>
seul s</w>
An d
Ann an</w>
priorit aires</w>
R I</w>
ráp ido</w>
co sa</w>
Tab letten</w>
g h
Elimin ación</w>
p ine</w>
ander s</w>
examin ées</w>
desi red</w>
deriv ed</w>
destin é</w>
inf o</w>
Swe dish</w>
di g</w>
it us</w>
é dition</w>
Cas ino</w>
ch ev
aw ard</w>
Jerusal em</w>
secund aria</w>
ex ports</w>
unter sucht</w>
conven ient</w>
deci dir</w>
at -
CH MP</w>
vou lu
pr er
ro ot</w>
discuss ing</w>
israéli ennes</w>
pouv aient</w>
typ ically</w>
car bon</w>
Ru le</w>
considér able</w>
afec ta</w>
Sch engen</w>
dep end</w>
detall ada</w>
médic ament</w>
realiz an</w>
identi fic
P RI
fe ed</w>
gen heiten</w>
volunt arias</w>
cht et</w>
Beh andl
Spi el</w>
s n
identi ficar</w>
ul l</w>
tr auen</w>
tsw ana</w>
for ums</w>
dign ité</w>
communau taires</w>
enter prise</w>
ar ro
É quipe</w>
flä che</w>
Jap anese</w>
vec inos</w>
libér ation</w>
Aufmerk samkeit</w>
Jam es</w>
Tec n
Straté gie</w>
conden a</w>
ausge zeich
É thiop
intestin al</w>
199 8-
érieur ement</w>
í do</w>
me ant</w>
rati fié</w>
D eleg
. 1.</w>
r end
F ühr
co te</w>
N eg
men é</w>
vit am
disfr ut
co di
herr ami
W erte</w>
ser es</w>
cometi do</w>
for ty-
Z y
indi g
X I</w>
semin arios</w>
vent ajas</w>
wer k
mov ements</w>
key word</w>
IS T</w>
v ary</w>
intér im
ie den</w>
Lon dres</w>
pro clam
offici el</w>
Benutz er</w>
Pu eb
firm emente</w>
inter locu
medi um-
bah n
al entar</w>
re integration</w>
nom men</w>
met al</w>
pl ais
gl ück
J ud
fal t</w>
mondi aux</w>
Ber u
ter e</w>
fem en
Per u</w>
utiliz an</w>
d .
iz ing</w>
N AT
min ing</w>
estrech amente</w>
impris onment</w>
kan ischen</w>
Haï ti</w>
re pli
l ten</w>
urs pr
Bed ürf
ati tis</w>
decl ine</w>
bu ts</w>
boo king</w>
MAR K
circul ated</w>
individu ales</w>
périodi ques</w>
me ters</w>
pré voy
vend redi</w>
begin nen</w>
hi jo</w>
Plu sieurs</w>
Th ailand</w>
ge geben
wel ches</w>
S qu
Instr ument</w>
begr enz
u l</w>
véri fier</w>
man tiene</w>
citiz en</w>
eig entlich</w>
quali fications</w>
extr abud
de voted</w>
sup primer</w>
dr ink</w>
qu '
Ber eiche</w>
R S</w>
resid entes</w>
Par lament
tél évision</w>
alis ée</w>
app ing</w>
ail ing</w>
de gré</w>
nom s</w>
AI EA</w>
témo ign
ver öffent
S ev
injur y</w>
L IC
exam ina</w>
ß er</w>
Est onia</w>
formul ada</w>
expos ed</w>
proce dur
9 0
suscepti ble</w>
vo ter</w>
rit onavir</w>
m ère</w>
en com
ul tim
juri diction</w>
ü br
def en
experim ental</w>
Dos is
es comp
ang er</w>
Au tri
inscr its</w>
Öff ent
di da</w>
human s</w>
contribu ido</w>
Zél ande</w>
kr äf
tru th</w>
consult ative</w>
O st
répar ation</w>
dec ken</w>
prä senti
Menschen rechts
red acción</w>
reproduc tiva</w>
signific ance</w>
hal f-
B at
Öster reich</w>
T al
wid er
agu as</w>
Chi pre</w>
g est</w>
arti s</w>
sh ape</w>
я </w>
Bo tswana</w>
Ear th</w>
combusti ble</w>
empl az
Clo sed</w>
Territ ories</w>
be trägt</w>
S G
su prim
justi fied</w>
ju z
la stly</w>
ést as</w>
simpl emente</w>
ger ech
alleg ations</w>
re mind</w>
sec ured</w>
d amente</w>
lec tion</w>
jug ement</w>
concern ent</w>
espaci ales</w>
Symptom e</w>
relev ance</w>
affec ts</w>
ein fa
sub jected</w>
eventu ally</w>
concre to</w>
vis ites</w>
I D</w>
g ains</w>
H IV
de voir</w>
f a</w>
Fili p
S ach
So sten
human ity</w>
Mus li
bénéfici ent</w>
brau cht</w>
soldi ers</w>
shor t-
üh ungen</w>
différ ence</w>
bed ingt</w>
ó lic
ta ille</w>
Bud getary</w>
spr ing</w>
chois ir</w>
deci dido</w>
fri end</w>
du mp
es is</w>
sup érieure</w>
ri ons</w>
dro p</w>
s and
coordonn er</w>
ch al
Man tenimiento</w>
Bon n</w>
Pap er</w>
konn ten</w>
Y outh</w>
religi ons</w>
origin ally</w>
déf en
pro medio</w>
her itage</w>
Ch urch</w>
e gi
wir ken</w>
under lying</w>
offr ent</w>
presupuest arios</w>
B ay</w>
a f</w>
Industri al</w>
zusätz liche</w>
pren der</w>
stup é
wat ers</w>
Per ú</w>
di o
facilit ation</w>
Palestini ans</w>
acep tar</w>
uni ons</w>
zen tri
grati tude</w>
t ter</w>
non- discrimination</w>
D re
per su
intern ally</w>
au l
confir m</w>
Engl and</w>
fer mement</w>
pe tróleo</w>
multilatér aux</w>
pro pon
Mar oc</w>
gener ate</w>
matr icul
-à- vis</w>
ges ell
requ ieren</w>
mou vements</w>
person ally</w>
gewi cht</w>
Han del</w>
perm í
Distr ic
en ship</w>
fl ü
stän den</w>
ec k
fix é</w>
médic aux</w>
L ist</w>
li re</w>
as king</w>
arti sts</w>
weap on</w>
prev ista</w>
Q a
sol lici
caus ing</w>
G ent
Inter essen</w>
sa una</w>
ier ungs
WH O</w>
be teilig
fac to</w>
Ou est</w>
prote g
h ará</w>
corri entes</w>
contro les</w>
test en</w>
do tés</w>
montr ent</w>
MA NU
Date ien</w>
ab dom
t ap
1 17</w>
Direc tion</w>
prov iders</w>
barri ers</w>
promo ted</w>
vis -à-vis</w>
In n</w>
separ ado</w>
ab usos</w>
semin ario</w>
consider ó</w>
Sch utz
compul sory</w>
ts ,</w>
D ata</w>
bureau cr
rit erien</w>
h us
pri é</w>
P ier
est able</w>
M ach
pañ as</w>
Environ mental</w>
2 nd</w>
f ahren
t aron</w>
rappel é</w>
micro gram
ge t
baï d
12 ,
stor ed</w>
Har mon
mon thly</w>
il egal</w>
prepar atory</w>
enc ein
Fl ex
fr en
eux- mêmes</w>
Superi or</w>
w ished</w>
accél érer</w>
ex hau
trans misión</w>
compati bles</w>
sel ten</w>
consider ations</w>
ed ly</w>
exp and</w>
dom mages</w>
vis ent</w>
acc o</w>
proxim ité</w>
neu er</w>
AR T</w>
lí mites</w>
conex as</w>
imp ér
pp .</w>
zeh n</w>
at titudes</w>
imp acts</w>
im peri
Pra x
sp ending</w>
ex hibition</w>
g ab
considér ables</w>
a forma</w>
ocup an</w>
v á
fai th</w>
T ob
amer ic
satisfac tory</w>
mejor amiento</w>
montr er</w>
Nov artis</w>
trou bles</w>
Éthiop ie</w>
approvisi onnement</w>
avi ation</w>
Flughaf en</w>
Qu al
Agricul ture</w>
gly kä
ou til</w>
Algun os</w>
Bo x</w>
ci endo</w>
concer t</w>
contrô les</w>
Organ e</w>
sup pression</w>
F IC
pass ant</w>
M i</w>
ach ats</w>
un known</w>
O P
r ue</w>
tran qu
propos ées</w>
er aient</w>
Nouvelle- Zélande</w>
compren sión</w>
Compu ter</w>
s low</w>
manifi esto</w>
[...]
